node {
  name: "input"
  op: "Placeholder"
  attr {
    key: "dtype"
    value {
      type: DT_FLOAT
    }
  }
  attr {
    key: "shape"
    value {
      shape {
        dim {
          size: -1
        }
        dim {
          size: 100
        }
        dim {
          size: 4
        }
      }
    }
  }
}
node {
  name: "input_track"
  op: "Placeholder"
  attr {
    key: "dtype"
    value {
      type: DT_FLOAT
    }
  }
  attr {
    key: "shape"
    value {
      shape {
        dim {
          size: -1
        }
        dim {
          size: 4
        }
      }
    }
  }
}
node {
  name: "model_1/time_distributed/Reshape/shape"
  op: "Const"
  attr {
    key: "dtype"
    value {
      type: DT_INT32
    }
  }
  attr {
    key: "value"
    value {
      tensor {
        dtype: DT_INT32
        tensor_shape {
          dim {
            size: 2
          }
        }
        tensor_content: "\377\377\377\377\004\000\000\000"
      }
    }
  }
}
node {
  name: "model_1/time_distributed/Reshape"
  op: "Reshape"
  input: "input"
  input: "model_1/time_distributed/Reshape/shape"
  attr {
    key: "T"
    value {
      type: DT_FLOAT
    }
  }
  attr {
    key: "Tshape"
    value {
      type: DT_INT32
    }
  }
}
node {
  name: "model_1/time_distributed/model/masking/NotEqual/y"
  op: "Const"
  attr {
    key: "dtype"
    value {
      type: DT_FLOAT
    }
  }
  attr {
    key: "value"
    value {
      tensor {
        dtype: DT_FLOAT
        tensor_shape {
        }
        float_val: 0.0
      }
    }
  }
}
node {
  name: "model_1/time_distributed/model/masking/NotEqual"
  op: "NotEqual"
  input: "model_1/time_distributed/Reshape"
  input: "model_1/time_distributed/model/masking/NotEqual/y"
  attr {
    key: "T"
    value {
      type: DT_FLOAT
    }
  }
  attr {
    key: "incompatible_shape_error"
    value {
      b: true
    }
  }
}
node {
  name: "model_1/time_distributed/model/masking/Any/reduction_indices"
  op: "Const"
  attr {
    key: "dtype"
    value {
      type: DT_INT32
    }
  }
  attr {
    key: "value"
    value {
      tensor {
        dtype: DT_INT32
        tensor_shape {
        }
        int_val: -1
      }
    }
  }
}
node {
  name: "model_1/time_distributed/model/masking/Any"
  op: "Any"
  input: "model_1/time_distributed/model/masking/NotEqual"
  input: "model_1/time_distributed/model/masking/Any/reduction_indices"
  attr {
    key: "Tidx"
    value {
      type: DT_INT32
    }
  }
  attr {
    key: "keep_dims"
    value {
      b: true
    }
  }
}
node {
  name: "model_1/time_distributed/model/masking/Cast"
  op: "Cast"
  input: "model_1/time_distributed/model/masking/Any"
  attr {
    key: "DstT"
    value {
      type: DT_FLOAT
    }
  }
  attr {
    key: "SrcT"
    value {
      type: DT_BOOL
    }
  }
  attr {
    key: "Truncate"
    value {
      b: false
    }
  }
}
node {
  name: "model_1/time_distributed/model/masking/mul"
  op: "Mul"
  input: "model_1/time_distributed/Reshape"
  input: "model_1/time_distributed/model/masking/Cast"
  attr {
    key: "T"
    value {
      type: DT_FLOAT
    }
  }
}
node {
  name: "model_1/time_distributed/model/dense/MatMul/ReadVariableOp/resource"
  op: "Const"
  attr {
    key: "dtype"
    value {
      type: DT_FLOAT
    }
  }
  attr {
    key: "value"
    value {
      tensor {
        dtype: DT_FLOAT
        tensor_shape {
          dim {
            size: 4
          }
          dim {
            size: 64
          }
        }
        tensor_content: "\264x\221>+\346!> \234\021>\305\345m\276\254\3629\275\004\334M\276\014\246\273\275\260\371G>lK\251\276-\002\312\275\263\237\240\276\007 (\276\225g\014\276dl\242>{\341\370=\235\330+=\234|\233>\004`\355\275R\202_>\346k\317\275\266\213n\275VPD>\244l\227>\245\330\234\276\024\240\220>\230i\362=\005%\021\276N>\020\276\242L\212=\2368\223\276Y\371\372=\221\226p>\365\215\213=Q\276\234\274\3606\305=\333\252\221\276\004\301\250\276\302\3618\276lh\246\276\254\037\343\272\264\362\277\275\376\260\247>\342i\220>\3707\375\275\273\005v>\223\204\000>\257u\360\275\335\225\224=,N\212=\3768\243\276\337i\205<\236e\201\276\020\247\"\276\347`\n\275\253\277\003\276\203\304\010>\000\270\220>8\224\215>6\035S=\322\335\031>\357\2440>YTt>w>\243>;\363\365\275\347\271\251=\234\002->\241\345\227>\364\315|\276\2609;>@-\211=\260\372\216>\262\005x>i24>\027?\016\276*\243\215>\023\232\240>H\343~\276\270\323N\276\377H*\276\230\'\n>\321\243Y>\013.:>_\007\311=wl\221\275:`T>\312h\007>\217q\221\276\274\004\236\275\225\256d\2755ga>\263G\231>\373\007\245=\251\211\227\276\307\306\212\273\007\212h=u\350\034>\330-\211\276\355?\013>B\275\316=*u\020\276o\031\214\276\254\rC;\231{\031>\013\366\370=\261\263r\276w\375\242=[\225\343\275\277\300z>i\376*>nr\212\276\014V\213\276OO\023>e\221\221>\307\024\230\276a\314\206\276\356\242\241\2765\305Y>\377\010&\274c\027\200>x_\231>wW\205\276\277\314\251>]\003\n\276\26640\276EY\213>g\340\201=\353\207W>[\230\236\276$\254~:\037\346\027\276\321\335\220>\225\r\211\276$\014n\275f;i>e\\j\276jB\032\276*\304,\270\271\263\213\2760\257!\276\330\216^\276d\002\207\276TQ\300\272\203\\\216>\222\375\223\276\311\347\212\276\244_*>\256\317\254\275=\204\010=D\265\201\276xW\202\276P\214y>P\375\221\275\317ME\273\330\340\n>\007\016o9gl}>,3J>\227b\213\276|\3515\276\227\322O=\037\310\013=,\223\216>B\323\370=9\002\177>\257\250\301=\223\013\211\276\325p\201\270[\301\202\276\"\331h\2764\350\225=X\334\305=\303&B>\370}\224:\177\377I>4\223\227>\0304S>k%\220\276\014\036\240=\304\367\375\273\031%\201:\342\267V:\307{\352\275[\363\373\275q\206!\276\322\007A>\022\343`>n\232S\276\004w\246\273\303\236\021>\216Ve\276T\223\221\273\374Y\315=H\272~\276\335\273\001>\356\177\232=\357M\363=X\024\224>\232\217\257<\177\032\r\276v\314\235\275s\002(\276\217B\224>\211u\305\275Y\023\333\275Y\362W\276I\016\275\275+!\334=F\313\262=*\345\013>h|E>\315\031R\276h\020\215>]\314\201\275\257\320\365<\341\203\216\275\300rI\275r\2067\276\203\351d\276i-\227\271\240E\366<\206 \212=\177\350o\276\360\306\202\2756\327\277\275P\206\300\275)h\203\276\336\373\262\275\021\217\n\276\215\030\212>\223\361F\275L\223*=\206\3033\276\260\210\010=\261\267^\276\260\3402\276}\303M\276\250\205\032\276\270\222\'\275]X4\276\317\335\257<\340\365\\\276I\311\354\2743\021\301\2740\375)\276\274B\204\276Yj\217\276f\235#>\177\020\232\276\220=U\276\342\376!>\262\261D\275<\251\202\276q~L\276\203{\241<\234\020\210>2n\221\276"
      }
    }
  }
}
node {
  name: "model_1/time_distributed/model/dense/MatMul/ReadVariableOp"
  op: "Identity"
  input: "model_1/time_distributed/model/dense/MatMul/ReadVariableOp/resource"
  attr {
    key: "T"
    value {
      type: DT_FLOAT
    }
  }
}
node {
  name: "model_1/time_distributed/model/dense/MatMul"
  op: "MatMul"
  input: "model_1/time_distributed/model/masking/mul"
  input: "model_1/time_distributed/model/dense/MatMul/ReadVariableOp"
  attr {
    key: "T"
    value {
      type: DT_FLOAT
    }
  }
  attr {
    key: "transpose_a"
    value {
      b: false
    }
  }
  attr {
    key: "transpose_b"
    value {
      b: false
    }
  }
}
node {
  name: "model_1/time_distributed/model/dense/BiasAdd/ReadVariableOp/resource"
  op: "Const"
  attr {
    key: "dtype"
    value {
      type: DT_FLOAT
    }
  }
  attr {
    key: "value"
    value {
      tensor {
        dtype: DT_FLOAT
        tensor_shape {
          dim {
            size: 64
          }
        }
        tensor_content: "\207\270L\274Q\234\027\267\026\344\032\266\3264\315\274$\254\215\267{ZV\267\000X\250\274*:\330\265\334P\302\270\341\247\213\274\355k\260\274>H\263\267\371\305\003\270\363\000\220<\211TF\267bf\267<F\320g\267DO\345\267\010\276,\274\320_\377\273a\335G\267\027tl\274\347\005\341\274\024\035\210\267~\315a<\302\326\n\266A\365\344\273\233a7\267@m;\266\034\335\224\274^\371\322\267\365\353N\266:\303\030\267\334\367\025\264X\360\020\267\364GN\267\314\235\303\274Vb\312\267O\337\322\265\235lK\274\0046\202\266\\,h\266hu\245\266h39<\344\023F\274\222\027\375\266\031\272\007\267\373\334j<\304|\261\274\034q\335\274\004\031\226\274\301\206\316\274\037\'\016\274\022N\252\273[\217\275\267\334[\245\274\262\231\327\267T\020\244\266\300\347\025\267\204-Z<?\203\230\265\013\2615\267nj\265\266s\337\323;"
      }
    }
  }
}
node {
  name: "model_1/time_distributed/model/dense/BiasAdd/ReadVariableOp"
  op: "Identity"
  input: "model_1/time_distributed/model/dense/BiasAdd/ReadVariableOp/resource"
  attr {
    key: "T"
    value {
      type: DT_FLOAT
    }
  }
}
node {
  name: "model_1/time_distributed/model/dense/BiasAdd"
  op: "BiasAdd"
  input: "model_1/time_distributed/model/dense/MatMul"
  input: "model_1/time_distributed/model/dense/BiasAdd/ReadVariableOp"
  attr {
    key: "T"
    value {
      type: DT_FLOAT
    }
  }
  attr {
    key: "data_format"
    value {
      s: "NHWC"
    }
  }
}
node {
  name: "model_1/time_distributed/model/activation/Relu"
  op: "Relu"
  input: "model_1/time_distributed/model/dense/BiasAdd"
  attr {
    key: "T"
    value {
      type: DT_FLOAT
    }
  }
}
node {
  name: "model_1/time_distributed/model/dense_1/MatMul/ReadVariableOp/resource"
  op: "Const"
  attr {
    key: "dtype"
    value {
      type: DT_FLOAT
    }
  }
  attr {
    key: "value"
    value {
      tensor {
        dtype: DT_FLOAT
        tensor_shape {
          dim {
            size: 64
          }
          dim {
            size: 64
          }
        }
        tensor_content: "\254\004\203=\225\320\340\275\312\326\227\275?\341\315\275\226&i=\2533\357\275e\227/\276\271+,>\262\206\214\275\307\010J>\313.+>a\264\037\276\021\010\271<&^\245=-\324\250;x\213*\276h\004X\276\274V\317\273\221\2632=\205F\227\275Z~S\275\261\007\033=C\013\217=\201\010\325\275\222\033}\275\264\n\224<\225\030Y>\017d\310\274\345T\025>\312(\030>\365\'\003>\317\315\234=\255\022,\276\210\372\226=\236D*>E\356\016\276s\327\270=\243h\353\273\257f\344=\253?/\276#C\'>d{\036\276\314W\\\275e\220\021>\222\0027>\370\005\034\273\360W\217\275l\274\236=\036\312\350=\202\251\030>\307\031\r=\211\277\266=\327\222,<\t\201\343=\033\027\232\275\365\001\t>#\0057>>\371\243\275\275@\001=\330\255=>b\002E\276\234{\010\276\203\2562<\021\367\000\276\226[\021<\304H\326=\3164X>Iz\314\275\254\264\035\276\256\\\253=i\205\336=\261\376P\276\002\032[\276\310\216O>\000d/\276/\253\004\275\250\225\000>\341\2653>B\2178\276(\335\250\275=\313\361\275\032r\324=`DM\276\312z\271\275\376\221\r<\341\241\302=\251\325\010;*[\001\276\201\220\025=\315\234\370\275sH\221\275\014L\263=@\371\004<%\322S\276\212\006-\276\002\310\n\2764\216\022=\275\234R\275\"\370q\2751\3134>\201\3170\276h\314\032>\036\311\023\274\032a\325=O\305\022>\253A\372=-\377\257=\330Z\001=~\244\340=G\223\024\276\234\323d\275\353\010\265=\303\354\357=\227\t]\275\241=\316=`L\240\275\r\304\034>\306R\245<\031}\267=|\222\'=\002k+\275\2454\031>\302\267\376=\232H\251<q\0360\276\200~H\276\323=F\276F\320\005\276\004\352\363\275M\332C<H7\026\275l\323\232\273\351\267*>.[\255\275.\231#>\r\312\234<\013g\300\273,N?<\357\306\322\275\335w\256\275O\360\016>\031\3259\276_G|=\243?T>b\240\255\275\023c\343\274\356\305\321=\322o\377=l\357\010>\367\323\006\276)Y\236\275\027\215\207\275\014;6=*|G>\254\323\251=\031Wm<\3636O\276Sw\266\275Q\030g=\301\334\004\276\301<\361<Y\376\022\275\000\027\231\275\270\014\236\275F\206[>\033\024\027>3/\031=\246\300\016>\254-\201\274C\260\025\274j\021\026>\227/\257=4\010~\275>&N\275\332or\275\303q\227\275\312D\243\275hI\314\275$%\257\275%\361\177<\376~>>F \032>\"\335\005>\330\316 \276\235\247\337=\020\321\001\276Yj\361\274\030( \276MM^>\270(\017>\214\312\342\275xI\203=\200\232V\275\016\033!\276\331g\376<\313L\210\275?\305\350<\024j\235=\263m\224\274\336\253\351\274/\233\306\275\221m\202==\201D>\316\217<\276Z\002\t>\301\237p\275+W\371=\363\250\227\275\225\022\335=v\355 >:\376\322<#sE\275\323e:\276hQ\001\275\363\007\303=L\010\"\276\t\tN\276juG\276&WF>i{\345\274IY\363=Z=\036>D\233@\275! ,\274\267\336\023>>\275\240\275*jN\276\307\332\356<\312?\014\275|\333b\276\r\233\226:\212L\302=\232\034\207=\004\333\231=R\352+\276\364\217\005\275S\177\365:\202l\014>\266\244+\276\002\246\211=,\370\332\275\247\224\251<?\262I\276\021\317\005>\000EM=L\025\032=\320\217W<\301\321l\275d\030\003\276\306/\314\275\333\352@>%\214\266\275+\213\262\275}h\263\275\006\3355\275\000\261.\276L\0079>0/\363\273b\3459>\366]9>\345dP>\r\314\310=\300-\025>+\177\347\273\365\304N=\nW\275<\262\303\037\276&\312t<\353s~=\311}\r>\276w\307\275K\'\341<@\270\331\275\203\230\225\275\245\333$\276\276\304I=>A\000\275LfA\276>%\225\275?m\004\275\027\026\016\274\2352\372<\346\t\024>\2764\026\276SW@\276\025v<\275\217\207+>\244\024\014\276\024\376:\276=>\022\276\200\306\212\275\331)8\276\364\236\\=?\211\210\275\003\225\033\276\226\335B\276\211o\300\275\002Fr\275\362N\221\274\310\232h=\014\311N>?\264\\\276\325\270\377\275G\'\267<E\241\375\275\364>W>\n\212*\2760H\005\276\367%\262\275\310=\216=\301d\016\276L\213\003\275\274\332E>\n\002\372\275\222\267\224;\344\022\363\275K\263\222\275\212d\246;\322wK\276\024\031w=\373\276K=>\317&\275\373\230\266=E\375\032;\373V\304\275\265\205M=\223+K\274\001\024\016=\374a\243=-\276\021>\317\250\262=\243\243\r>\232y\\\275\342\005G\276VW$>Q\213?\276E\240t\275\314\347\210\275c\010\345=\004\205\254<\274\312Q\276N\307L=o\016\\\276\004\340\310=\255/J\276pW\n\276\337\316[9\355\225M\276Sl->\'\362\270<S\341\266\275\252\005\354\274\262\3568\275D\3204\276*$Q\276\220%\236<\005\312\"=gw3>\223[9\276A\014\202=\023CD>\331\302\374=X\356\020>\376\254\023>\363\270>>\\<\243=\304\210G=\316{\314=%\3238=\270\003S\276rX/\273\366\367\240\275\263\247Q=\266\262\253\275\250\255I>\217*\243\275\260~\">\233D>>\030\307\210\275WJ\256=\317\3010\276\312\323\311<\325\204Y>j\265,\276\3263\221\275\036\344\236\275\333U\005\276+\366\237\275\364\376\034\276#\331\031\274\236\243\377<_\241N>\n\215\"\276\366\336H>i\036\014>0,\206\274\034\200\300=\317\025\311\274\340\357\206;\020=$\276x\361(>}\014\025\276\212R\026\275\234\033\344\275\263\rG\276&\350\024\276\221FD>\034*O\275\230\325]\275>?\025>oF\310\275\320Ma=tv1\275\302\250\374=\2574\271<m\200v=\207\247\t\276o\232\022=\312\033\312=\332KZ\274\343*W\276\001n\010\276\316\3376\275C\337\005\276\347\247\361\274\222\263\347\275t\302\275=\016\343Y>B\026\304=\nF\212\2742\373.>\323\233?\276\255\212Z\275\003\244\315\275$\033V\276\362\"\201=\311\273\032>K\257\226\274L\237R\274\326\274\010\276\302\233\363\275J\252\t>G}#\275s^\003>\204\242H\276\342\211\031>\343pu=\202~B=\037\0248\275\260\354P>\243q\306=H\001\230<w\320\300=J\347\345\275j\310\237<\215\370\327=\376\256\222=\226\240\001>\333\266\242<\260\242\241\274Z\306\t<\302\002.\276\261\255]\276\340Z@>a\0058<\266\341P>VG=>+\200\200=\271\347\273=\'\230\007>\006\254\006>\304\262\007\276G\004F\276\020\336\\\275\364\263\266=L\310C\275\340)V>\236\353\325\275\270~\313<\354\2371>Q\275\341\2758\220\315\275\330Y\222\275\304\235\357;\271\264\256:\213$\006>\357\226\357=\361r<>\322\216\241=\017\216\377==\227\002\276X\244x\275-\333\311<\200\351\342=\347p\311\275\346\017\306\275\233\0268>x:(\276\235b\023>V u=\270\022\000\275\300\000\'\276\013\351\242\275\315&\006=)H->\276\253+>c\233\006\276d\0315>$\332\346;\270\211\021=\021\346\247\275\240\323\377\275\332g\320\275&3I\276\306A\001>\367$`>\233\232\347=\256\3030>\342\341\013> B\331\275bF\354\275\274\304!\276\356\035\007>\225\252X=\312=\031\276\353x\304\273\202\206\350=\221\266\371\275\265\230\006\27671\234\275\266_7>\326!:=\207\340\217=h\265\257<\272\373\221\275\032\306\335\273\250\374$\276\204W\214=2v9\276\226\253\266\275\246a\016\2762#%>\345\226Z=\375\351\236=^\241\263\274\233\0022\276jI\032\276M\246X\276\035Y\370=E\233\262=\205G\353\275g\222\221\275\205=\364=~Nm=YR\002>&pc>3\213\013=\206\024{=8\244z=\235\257\177=\032\336y>\375*\025\276\374\2349\275\233\3041\276K\344G>R`\t=xA\243=h\376\225=\006\322T>c\306W>^\324]<\204IL\276\213i\234=I\254\300<\000\t\377=\263/;=\324\250\n\276_\213%\276k\322/\275\003\227I\276:\031E\276\362\216V\276\031=\034\275\207]\034=>\021G=9pL>L\360Q>\355\317\023>\223\'\000\276{\367\003>\235\260T<\344%,>\006t\023=\037c\031>\231\364\n>\347a\342=\020\247I>\311+\000>\361X\326\275\203\330\001>h\311%\276\007\310,\276\367\236\007\273\307\363\331=\202\021Q\276\320\016\355\275\224\205\365\275\233=\"\276C\335!>L\262\331<\312\002\026\276rf\241\2747\244U\276\335v\245<\234]\013\276\003\'\336\275\010$\275\274w\3127\275\347\3548=\232\301\356=\326\372\003\276\233\270\277=\307\\\027>-\344\261\275\014\221\276\275\347h-\2760\334\347<\335\331\034\276\313{0\276\372\347\004\275\236\2525\276\315&\304<\027\247\006>\032\2769>o\332\002>\301B\374\275C\013\334\275\232o\007>\217\271(\276\253&\204=\360}#\275\350\246N\276\356\324#>\211\337w\275\365\372\2449h\224)<\275\300\177=`\2103=\255i\264=\274\003L\273I\004B>\272J#\276+\301Z>\035\332\266\274X\363\013>\270R\342=\214\364\231=\250\\\211\275A\372R\275\307\340d=\177\3259\276L\205R\276A\0053\276\366\225\000\276\246\2252>\372X\002\275\222\306\314\274<\006\216=\000x\316\275p\211\202;\236\367\343\274\207\364r<\273\030\r\275{\233\034>v?\030\2765\260\016\276E\342\371\274\332\251\237\275f#$\276\003\006\030\275\217A\364\275\004\304.\276\022Z\352\273\024\205\204\274\023\354I\276\336\215Y\275\275\326\220\275A,\000>\225\374\354=\235\313\027>\263\316\233\275\212\270\207<0\256\251\2753^c>\354m\277<\177\261\204\275\246\0101<\354\272\260\275sF\215\275\003bE>((5\276\347@\334\275/N\267=^\307\205\275F~\335\275g\n\212=\212u6>\226<\024=\237\357\004\276\\\375\004\276\270g\027\276a\177\335\275\005z+>\357}5=\2006H>\215\354T>\270cP\276\"\357K\276C\366y<~\272%\276\021\007\255=\3056\007>\030nU>c\307\025>\214\360$>\246\351\233=\r\2704\276\202)H\275\'I\342=7\317\271\275d3\253=\354b\365=\001\027\251\273\322F\321\275\2563\021>zq\031>\243\322a\275&\323$\276d4\221\275\365CS>W\351\000\276|Z\025\275\"\252;\276\346a\223=\200\3563\276\036S?=q^W\276kc\325=\005\353g>y\277\016>\374+\322=3\355\371\2756^e=1\007T=\374\273\001<\216&T\276\204\023\237<\232\325\276=\021|\205\275?\347\001\276h7\201<DdD\276\347BV>\306\240\272=y\2150>v=\240\275\250\272\357=\323]\265\275Y$C\276A\200\355<\277\202!\274!\013\021\276m\350\215=G\251\035=\232\370\306\275\330$<>\337\253K>@\342\t>\367\255P>0\226)>\277\203\371=\207\260\2769\313u\204=\313\210(>x\n\030\276\251\036\204=\"bA\276\337\213X>\007\277\026>\034K\252=\251`\333\275AU4>9;\220=\000\240\327\274?\340\203=,\001V\275\363\367\335\275\033\322\211=e\034A\276\357\361\266\275\030\"\266\275\264\201\312<\306\224\r\276=\271\\=\330c\340=\242i/>\257\2018>Y\264v<\370\302\'\276g\234-\276k\355\352\275\034\364\324\275s\t\034\276\242\333\361\274\225W\233;\242\342\014=E\t\355\275FZ\244\275!\3129\276\265\324\215=y?d\275\323d\006>XA\022;\250\270;\276\212\217\233\275\214I\330=\212~\'> \206T\276\210\202E\276}\344\350;\023\347\235\275\246\210\273\274P,5>_\337\024>&\227\034>\217H\024\274\251E\265\275\377|\027\274q\023\014\276+@Z>\212f\214=\245\252\256\275\010\243\314;M\320B\276\276\205\001>\226iy=\027)\006\276W\rK\274\370\0045\276#\231+\276\033\266\022>\347P\035>\361\337)\276*G\254\274\035\204\322\274\277\3015>\265\345\303=\206h!>\367\262\366\274\345\226L\275*]\362\275Yp\211\275\200v\324\275\256~%\276@~\306=\",<>\261L\251=\347\317c=\344\332X\275\376\203F\276\233\363\307=\374*$\276_\024\337\275n\266\356\274J\243/\275\302X\311\275\'\332\357=\020(%\276\222^\375\275\037\203\034>\260\265\246<\356\n\247\2750\264*\275\350z\271\274\353\321I\275\305,\344\275I#\210\273\223\304@>F!;\275\211\025\337=\007mG\275\236\206H\274/\261\265\275&FR>i<(\276\335\221\024\276\003\276\230\274y\232\222=\305\224:>\210\253A\276>\372{=\033\335\343\275\234\235><v#F\276\010\316\215=\034;\240\275\322q\357\274\265+\222=y\235&\276\301\350\243\275\210,Q>\030aJ>..%\275i\324Z\276\3240\017\276\264\277\000\276\201\'+\276w/\366=\220\311C\275%,\203\275q\005b\273@\210o\275\203\rV\276d\335\022=\2502\031>\235[\027>$r\303<\272\\\020>\276\303%>\206\233\232<\3340<=\371\"#>\266\2159\275\236\223P>uo\203=\027\351.>N\344\206\275\325\211\'\275\211\034Y>8\206\n\272$\256\340\275\300_\217\276\224\270$\276\231\274\351\275\211}Q>\033J\354=\373j\313=rd\037\275$\344\014\276\202\324\023=\"\001Z\276j\3154\276C\013\313\275\231\335\014\276@\221\013>`\005\225=N<\213=\214\tQ>\333z\275\275\265\340Z\275Pt\347=\263\305\016>r\021@\275\326\273\232\274\343\261T=\036\300\316=\301,\025\275\371\020\226=\215&)>\026\251\374=z\272/>\215\373Q>A~\372\275\264\351I>\350\370\244=\216\201\261\275\241\370\\\276\272\216\377=\210\240\336\275\356\036\\\276\234\250\365=e/;>\001p\357=\200N\340\275H\225\261\275%!-\276C\342$=H\022\034>583>\306V*\275\363q(\276e\227\t\275\013y\372=\332=\231=\331J\003\276L=-\276\320\3144\276\2134\202\274j\000\304=\r\364\234\275\273\326\\>1\314v<J\001$\276\233O(>D\325Y\2731\200\246\275\363\004G\276\013\013J\276\274\017\210\275+$\005\276\316gW>\016!\367<7EW\276,\203\002\276\327\214\214\275\300]\267=\360\305`\276oq\301<\177\360\325=\317\366*\275WN\350<\363\245\343\275\266]O\275\212\337I\275>\263B>\236\227\343\275:\370\257\275\017\222\204\275\227M\023\276(\236c<\343\370\313\275o\236\t>\341/\025\275\202\234!\276\260\267H\276\213\237\035>\253u\013\276}\212}\276\334\257\037><\233\334\274T\231,\275\235ub>s\307\326\275\336\222/\275>E\034>+\376\232=+\031\036>\355O\313\275\336\364|<\025\227/>Y\344u=i\2456\276p\307T\276\371S[\276\034#\"\276\214(%>\220_\034>\017\312\3059B\2264\276`\t\005=\374yF=jp\353=D`\254<\223W\322\275\370\205\023\276\376m\231<\302\232\037\276\276V+\275\253\257g>\3159\320\275\252\247\274\275eQ\206\275H\000\373=\226\244%>\251\274\276\275a\211\004>J\371\201\272\002\203\315=\030\344\204\275\007\356T=\211w\013>\2622\'\276\256\337\344;\250}\023\275\313\366M=v\234t=\347]\010\276b \034\276e\002\031=\310\3642\276~\364\210=.\217\211=?\206=>\206\030\010\274b$\016\2765\'\333=\252\306\034>\364/8\276E\220\021\276\322\236\213\275\351\004F\276k\372\372=\305\340\222=\315\3104\276\236a4\276\272\215V>x#U\274MO\'\275\251\331\r>3\210\032>\200\3105>|\307\266<\374g\260\273\211K2<\3049\027>u\375\252=\245#\225\275D\235\241=\020\233\311\275\227,\224\275jh\002>\013\317\035\276\007s-\276\177\010a=\217\222\306\273\207NP>C\2108\276\2273$>\000D\203\274\025\347\263\274\025(`>`\0020>L\0275\276\274\274\326=\302QN\276|\tE\276\231\034->>5M\275[\347\210\275\340\305\033\276&\247\235=\337\350\216\274\244XK\276\020z\245\275Q\3466\276\303L\325=;\226G>\300\274\332\275\263\013%>\"\233\260<\260\336\300=\331\341\254\275\252u#>\003\236\017=\017\362\340\275\010\224\213<\027\351\210=\031\300H\275\016\016\220=\352\\h>3\033;\276G\026&\276\340\n$=\"o\356\274dd9\275\254\235\\<\376\351I\276\272\277Q>FZ\031>n\224\201\274x\0359<az5>+9\027\275K:\244=|\305\236\274\311u8>\014#\370\275Q_\177\275\r\363\027>\340*W;f\300\312\275\242,\357\275 \230\207=[\256\211=\034\347V\276K\270)\276\330)J>_O\254\274\327\na\275\265\257\000\276\375\264M>\341\004\207=\362\325#>6C\211<V\377;>\276O\010>;\324\024\275;0O\276ryC\276t\216\316\275j\006s=\236\331<>8\226q\275\277\342\035\276\210\235/\276\226\227\251\275\2676\270=\206\022\035>\266~-\276I\301/\2761\245\257;\373\3308=\301\352X>BzS\275\004\354\271=\020\007#<\362 \202=b\270\274\275<9]\274\344\025\201=k\030\032\274\213\200\206\272\013\357\343\274\275\002#>\025E\256<\260R1>X\307\261=\035\270A\276z\023M\276\250f)>/\335C>\230\313:\276\315\032\002\276.~3<\233\324\347=\200c\017>\302\016\\>}+W\276\024Dz=.\336\355=\221t\032>YZ\004=C\321\365\275fY\t>\004\272\234\275\355i3>\242\304\304=/\016\t\275:m\n\276H\232\311=\212\2046\276\301\373N\276=\362\217=e\325\303\275\251\260/>\307b\325=\360m*\276=\264W\276\036\344?\275\"YM>\217\251\020\276\217\336K>\247\033\252\274\032\343\237=\360\265\350\275\312\275\n\276\264\336\014\276\034\2458>\0067\035>\027\301\340=5\035\342\274\3548\273\2750\261\224<Fd\351=\303\303\212\275\354\230G\276Um\222<\0222D\276a^,\276Z\300S=Q]\367\275|\234\241=\211\251\014\276[\335\210\274\255sB\276\275\243(=\253\210.\276:~\343\275B\363\242=\331V\252<W\223K\276\261\332\272<U\211\311=l\303\025\276\201\021:\2750\001\364=\213b\313<\247z\032>\221K\376\275\365;o\275j\274U\276\305C\364=\355\"\t>\014\260E\276R\363\036\274B\2608>\320\245H>\250N\361=nm\021\2768\235\013>\361<\030\275r\035\002>E\000\001>,\344L>\205m3=\304\353\260=v\272\037\276\007b(=\t+0>\374\037\020>d\266C>\326\325\024>f\000\354\273\330Ka\276\221\254\333\275\345\347\360=sk\362\274\307\303L>\006\233)\275\345\003\340\274_Qp\275\236\037\020\276\232\017Z<$\2609>\231\247\037\276\276\201;\276A\344\014\276%\332Z>Aw;\276\364\242\230\274\306DC\276}\357\227\2744\214\\\276\0309\344\275ggS\274-\364\273\275\244\264Q\276\273\'&\2763\021+\276\022\270\272\275\364M\035\276?\377\277<b\313\327=\273\205U\276+.I>\022\350M=\210\032\336\275\220\003\031=\025\341\262\275\006T\327<\222Y\347=nOU\275\222\3720\275(\221\245=W\374\347\275\370\255Q\275\321\325\033\276\365\360W\275\203\237\t\276\222\341\272=^\304\"\276\001\263\007\276\001\351\363\275\320\202\020\275d\363\233\274,\345\334\275.\203%\275P\304\315\275\311\274X>\351\252\340\275-p7>\007\315N>\271mm<\200\235\254=\374\022\352\275I\004\t\276\365\t\342=\213\370@=w\330\271\2752\360\230=R\266\341=\333m\213=\260A\242=a=\260\274w\300\243\275Y\212W\276\320S\022\276sTC\275\234-@>\345\027#\276\343\205+>\031\354\316<\311<\254=\371\271(=\200cT=\217K5\276\351\"+>\365l\242=\244\247\235=z\000%=\354\204^\275\002\234X>\255@d\276\313\024?=\374\331\213\275\013u\203\275Q<\206=\034\016+\276q&A\2765t\310=p\243 >XY$>l\275\301\273@\246<\276\242s\306<\204\225v=\342\250\027\275#\t<\275p\270Q\276\227\341\240=\363\024\033>\211\006C\2769WB\276WF\016>R\250\023\275\327\002\222\275\360\252V\276\030\036\204<)\371H\275\227\362\231=\004LH<~\265/=\016\355\306=\202\232\212=\272\332G>\231|P\276\362\206\000>\203\353T\275\266C8\2764\202\370\275\014]X=\312\265\026>\240:\314\274P\272\361\274\305\317\320\275\370\264,\276E\313C>K\256 \276C\237e\275\254.\221\275\000\350.\275\205\212\023=\351\275M\276\251\261<\276\032\375\344\274\324\342\036>\270\230,>+\201U\275`\\\312=I;>\276\254\322z=\236\r\377\275\034;\026\276}\274\361\275\024\316@>\036\014\207\275\371S\361=\003Q*\276\315?\330\275\002\231E\273\333_\303=\241/.=\\\357:\2769+\357\275B\331`>[\222*\276K\200*\276\177w\030\274\376y\313=\377\327$\276C~\242=)\022\376\275\307\372\232\275\256\272\n=UT#\276\033nV=\223Y\024>\002q\335=\202\321\251=\340w\352=\256\251\361=\337\277\353=\350\312)\276\307\274L\276\236\362S>\\\307\000=\340>\004=W\2269>\357-#\275\260>\240\275,-\357=Px]=\307-\352\275\031.\303\275rv\351=\263l\335\275M\271\356=\366,\026>\305;M>)LC>\026XF<L\222\210=\376\345i\276CJ\022\276\340O\277=\260\206V=\246g\375\275\252\312\014=\004\026\246\275=\353\216\273\020\357#>Q==<\0037\027<\321\204\006>\320\002\374=\243\251)\274\005\335=>\345\371\r>.\333T\276|L\271\273\201\377\241\275w\351\320=\256\301\030>\264`\326=\rg\247=!\322\300\275\247\245\307<\007\270\361\275\215\311\'>\177\3321>`\305S=\201|\304=\352\333\265\275\314\030\016\276\271\365\316\275 \347D=k\345\312<\341\035\007;\007\300H\276\3459E<Zx\002\276\354\372\007>+\345\025\276\220\203\003\276\354,P>\233\331$>\372\214\035\276\\\031\034\276\370\017O\276\361\230\264;\275\311@\276;\372;\2747\231\030>!\244\\\276\300\232\267\275\377\237\r<R\331\211\275U\177\030\276\275\200\031<y\373P\276K\247\210=\263\034\276\274\016\0105\276\256\205\322\275\024\307\366\275N\004\202=_b,={\032\212\274E\0210\276\261\242\337=\211\334\341=F%\033\276\2739\216\275\036\211F>\"\260?>#9+\276\310\311\236\2733\253\030>\202\373>>\227WK\276\311\367e\274<\035\360\274\356\366\001>\020\n\021\276\016ZL\276\240+\266\275D\250Y>\266\334V>\034\355%>z\027\320<\215\234&\276C]\270=g\006/\276\213g\361=\005\261:>\375\317\350\275\256\3663\276\221?\265\275u\301\374\274\234\346Z>\177>\027\276\205\373\366\275\311f]>\303\355\207=\026GQ>\371\302\255\275\024\246\361<\307\020\261\275\016~Z\276z*<>@\336\317\274U\225\001\275\371\026\027=\013\210F\276\326\324z\2754\031\300\275a+\207=\335\027\343\275\374`,\276\2208^>7?e\275\031\001Y\274\223\270W\276\226\024/>\270\363N\276\200zl\275\242\276y\274\354\022[>\364\245\002\276!\342\327=\245\273\303=&\271A\2763\013\367=\237\t\235\275|\032X>\232\326\350\274\332\217W>\2267^>\306\267\016>Q\275G>\250\225R\276;\327\036\276\265\236W\276\2749><=y\t\276\273\025b\274\277\342Q\276\377wB\275TA\005\274QZ\211=\203_\342\275\3541\204\275\020j.>S\3245\276&\271\027\275(T<=\021\341T>\220\212\\\276\017\227\005>\263\254\204<Y\023\001>\254\235\351\275\2454 \276\306\030\016>n7\016<\343/\014\276\'\224?>\367\265\233\275\342\366\233=\216s\237=\006\005\031>\200\242e\275\025\365A\275\321\361\273\275\275\220\037\2762j=\275_\351\327\273#\214d\276}\203\t>\372\321\233=\210\260->\263\241>\276\225\272Q\276H\375H=]\237|;t\236\034=\201\306;=#\313.>\202\265?\276\220\002\201\275F\'B\276Q\316!\275x\020.>\020(\356\275x5D\276\030=?\276\032\253\003\276I\t\342=.\335|=\336v\355=D<l=r\002\347\275\001\016!\276d&[>\362\271?>\227\223;\274\004)O\276\377\214\264=M\177\221\273#\321\302=MM`\274<\265N\274@KZ\276P\272\314<\002\221\n\276-\025\260<,\254:\276\334\231#>D|8\276Q\372,>P\247\031>iep\276\247)\033>\261\'\307\275w\206)\276\r\325\036\2765\314\316\275\277:+\276\302S[\276\310\232V=(\3418\276\231\261\t=\246\323e>n\233\363\275\371\276\357=\332\022\205=r|&\276\324g\306\275\372\256\371\275\177\214C>\314\364\206\2732G(\276\224\331?>\022q\216=\275W?>*\034T=\'\274+>q=.>\241X\016\276\201\3542>\237\350i=\210\310R>\232\035\215\275\332;\246\275P6N\276\253\323\367<\374\002\361=$\335Q\276u\357\360<T\367*=\333\223^>\261\360\365<\257\235\220=-i\000\276\206\231\022\276\362\334Z\276\347\027>\275\233\002\235\2731\270Q>\030\034\n>\202o%\276\367\204\326\275\336)\337=\363\331t=\025q\016\2767\2704;%$/>\001X\376=a\336\377\275 \303/>P\345\003\276*\355\300=\025ga\276\002W\255=\271\034\006>\343\240C\276dcI\276\033\260C>\r|\004\276,/4\275\277\"h>\301d\361\275\313KO\275X\256\024>\032A\034\276+f\353=\217\266\253=\204C\333\275R\356\252\275\325\371\224=\375V)>\014\2143\276\357\237\021\276\261\223\335<w\262:\275#\313N\274p\342\236\275\200}\241\275 G\254=\036{\256=H`\017>\340\021\037\276\006\363\261=\2562&>E\212\014\276\200\216\022=s\302\021\276\340\3320\2768.\241<M\355O\274\337\002)>,E\344={\3072\276L\034\025\276\334\027\232\274\314\351\210=\343:\343\274t\0264\275\000=\231\2747a\346\275V\237}=*\232$>\244g2>V\303\032=\345\373V=I!{\274\256\027\274\275\2457!\276\243\3245\276\234\366\021>\216\253\021>N\006\025=\246\262>>=4\377\275\240<\003\275\037`#=\370\375\217\275\3135\320=2pR\276\226H\007<\215\004\240=[\351\037\276\257D@\275yO5>\201g\006\276\220v\267;\346\273\261=\243//>\025\336!>\344Na\276]\310\205\274O\037\002<\200W]=\242\002\332\275p\r\003\276\371\320\332\275\262m\264\275\270& >\201E5>\021\206\007>\277\233K<\272s\255;N\271L\276\210\307\211\275H\026\250=5\267\207=\350\023\355\274\267\322\006>\377F\033\2766\353\243\275\274\2763\275\304\2436>\375\215G>\266$\276<-zF\276\203\232C\276R\313\245=\177{\363=\333\005\276=\236G\375=\325\373<>)\345\264=Da\360=\252\351!\276\213\330\301=\240\3041\276*J\231\272v\214\321\275->\337=~\250G\276a\360\224\273O\354s<R\306L>\334\374\033>U\371\031\276{15\275b\013\325\273\003\244\016=\356\343R>\351o\363=>\310z<\346\315Y\2768\021I\276\321\277\000\276G\"\005\276#\251\020>\202\350+>\233\020\236\275d\"\213=@\202\000=\026\r\023\276(\324O\276\316C9\276\'Z\014\276k\'\367\274\232\325\010\275\350\226\030\276\033\375\005>N\377e\272>\216\207\273\342\201\\\273OK\001\276\014T\n>\375g\360\275\251k\245\275\313\226\330=\315\274O>\036Q\311=)\275)\2764\322\330=d\234,=I\2027>f\030\025>\r\325\002>\314\224\214\275\23704\276|\0138>\177\367\000>\000aN\276\327\201I>\204o\374=\010\304\260\275#|,\275\360\2346>G\033\372=\024\220!\276\026\217-=\203\314C\275\017<Y\276\267\n\016\276\214~\260\275}\202\026>\276\311P\276R\321Y\276\365\007\033\276\217h4>\210\366\320=\367NW\276U\225\344\275C\234\321=\216\021\000\276\223\266&>\327\016\336=\342\242\310\275[\340\324<\241jO>\267R8>\340\000\273\275%\0061\276\211`\031>L\351R\276o:\352\275[}\332\275\370\317\331\274s\017@>\n\244X>\002 \355\275@s\214<l\230X>\222\353I\276\3518\353\275\351\324\312=d\266@>\3328\372=\225\016 >o\267)\275\'\217\036>I\351F\275}\302\373\275/)\022>\005\376#>\346B\323\275\346$\213=\\b\303<C20\276b\200\024\276i\016K\276V\256\026>,g:>\014Tb\275\230\311\271\275\310R\263<571>:[\222\274\273\232\353={\030\345=\344\320\\>\364\201Y>\002\024\250<\305:N\276\361Tc>\305\324\010\276\241\246\331\2752m\025\274`\3055=\346\335\222\275\320\315\372=\236\267(>\253a\357\275$*2\276\2520\033\276\241\205\034<~J\'>HjA\276}P\263=Y&,>e\272\260=`(\312=\025\2261\276c\363\220=\301\354(>\356\255 >\333\241$\276~\031\206\275\372\\\345\275\350\310;>C\337k=)+\363=\232\005Y\276\225\225\224<\333k\031>\301@V\276_\276y\274\037\311\036>Th\323=f\3726\276\303A\272=\347V<>\252\373\214=&p \275:;\204\275\"J)>t\320\031\276\272\353\007\276\324\273\304\275\246\n\256=\331?\024>\272\007C>nm\207=\366\261\021\276\300\343L>\362\273\273\275\310<\346\273\350\230\313\275[\310D\2763p\307=\2128P\2769\031\315=\251O4=\334\020\032\275V\237g\275\307\032\270\275\347\033\265\275(\026\223=6\301\017\276YV\216\275A\314$\276\242\310\023>[\254\r>\3105H>\022\313`>_z\021>\343q\326\275\021\310\032=\320\367S\275S\014\366=\366\317\202\2756\311I>\325r\372\271\320\342\313\275\317\310\002>\020H\252\275\276f\007\276\0072(>\307Z\353=%@%\276\356\304:>w\372\003\273sd\310<\014\326->\3048u=P\217\330\275$\232<\276\2473\325\275\010OD\275\216\272\">O\350\217=\303e\016>\213DP\276]|T=\235?\025\276a\352\266\2747\253\016>!\t\201=\363H\\<\274\302\343=\200\352\017>\264\371\375\274\'\254,\2766`\013=\367\273\027\276#f\361\275\247t\331\275J\261\026>e\367\310=\007\265&\276cE\017>\224\300\032\275~\342\016<\326\242y\274I\334\267=\215=\025=\031\026\360;\225*\212=\210\225Q>:\177\351=\212\316F\276\030U\335\275/\272\n\276o\001&\276[Q\242=\004o\366=\3608Z\276\245\360\310\275<\321\213\275~\032D\276\177c\027>p\302\032>\320.\227<lD\2419\026\200&<\204\374\032=\253\326\211=\306\202F>\037l\'\276\334\204B>\314vD>\037\2248>\341\007\351\275\342\353-\276\356\007\370=!\0304=\006\312J\276kH\032\276\267\\*>U\376\037\276\034v\260=L5Q>\220\210\251=\243{\315\275\351?\263\275}y6\275\336\333\\\276\374\266F\276\276\363\253\274\357\352\277\275J<\222;`P\255=P\315\016>\327\356:\275\3238>\276\376\203=\276`\177X\275\'\340T>(,\230\275kD\265=\306\017*\276d(z:RJ\317\275XH@\2758\300\006\276\315Z\355=o\321\003\276\315\241W\276\252\005\235\273|\"\016\276\331\004\033\275\207\033\332=\3039\254=P\036\033\276M\350E>;\032\332\275\270\376\r>\336\264B>\007IY\276\270\t;>\213}M\276}^8\2753\261B>\212\031\233\275\251C\t>\340\033\017\276\3311f=\266\207M\275\344\212%>\\k\200=\342\004\033>\302\241\017=\306\275C>\005\205=:\357\002?=\341W3\274\034W\034>T\351?\276\004\341\016\276\007\236o\275\307\264%=!_\343<\235fa>\251z\335=]K\000\276\336\311;>e\232\247=\323~N\276\336W\347<I\213\022\274\nvK>a\031\236<\203\215\363\2758Y\327=\361\311\225\275\242\000\031=)\034a=\201\213\024\2760\341#>\026\263\030>\247/8>B\365F=\014\331W\275\022k\277=,X&\274bV\342=$\"\004>N\376\030\276k\205\001>t\242\277\275\347U\214\275\236\352\320=\334\332C\276\324\303)>\370\350p=;Y\022\276\225\014S>!$\242=G\375\005>\254\352\256\275\263\321\336\275\303#\026\274\"\254\r>g\307 \2760\334\334\275<9E\274\265\306\024\276\342\211>>7b\210\273\244TY>\377G\352=\005\353->V\227\037=\226\335\262\275\3751\275=\260\366\014\276\031\220\322=\300AY\276\260\tF>\235\340\t\276\240\021\224=\026\026\037\276\354\256\276\275W?B>\242\272d\275gE>\276\372\243\030>#^\034>p\234\014\276m\235\260=K\356*\276\247\315\014\276\313\250P>UO8=2\363\255=\340B\211=ecB>\325\350h\275\024\314\032\276\213\013G\273\205\377\027>\256K\005>\034l\327\274\241\254@>\017\355^\276\017\021o\276\323\330I>,h\023\276\374\037\203\2759\302\035\276c\232(>x?\332=P\354\020\276\213q\033\276\207:\247<\034\371\001\275*\246L>}\316\333=Yn\214<\354\200\254\274\273\236\025>L\234)\276\034\2000\276\333\004\3528Q\0205\276!\375\220<p93>\354\255\356=\313aZ>t\304H\276l\221\013=C\235m=\002\352\231\274=u\230\2752\262\354\275e\361\264=\364\221y\275\206Z\005>O\224\000\274\340s\220=\242gK\273\036\033/>\364BB\276\033\256K>\307\247{\274\265LD\276l*\320\275\373\264>=\372\335\305=\351jM=n\2637\276\017PV\275\000\240\007\276\224\3215\276Tw\346=\313]\032\276M\326\023\2765\034\322\275\3633#>P=R>\032\036\304<<XA\276$\273\263=\355\300\241\275\204\361\225=\327\376\261=u\275\360\274\214\177\235\275\303\t\210\274\016\373\036>-\036P>\326\215\226\275\265\304\002>E4\300\2757\270\322=F8\263<6\226\335=\321\t\222\275\377\232M\275\234\003?>\317\355:\276\340]l\275\224\325\231=f\364\274\275\\c5\276t>[\276/<4\276_\016\341\274\371q\254\274\251O\355\274\275\210\030>\016~\233=\272\007\320<\032\212\266\275\343R,\276\362\307\032>\364\306\335\2759\367J\276\371\277\034\276\364r\020\276\332hZ;H\366:\275K\3714\275VE]>`g\242\275YEW\2758qj\276\301\241\321\275\0025k>I\'F\276\304\320\217=\311\257\273\275&\304\351\275\303:Q>\325\2616>E\2059>\371qW=\267r\365\275\030\364X=\305\277,\275\016\013\n>\036E2>(\260\014\274|\347\252=\246\367\327\275r>\262=k\340\321\275A:!\276\236\273e\275\007-\345=\014\337\177=]\003&<im\035\276u\227-=k\024\004>\034\025!>\220\321\013=\177\355\320=\244n=;\330]\026=\035g\026>\035\377\n\276(\275\210\275V\'\227\275\236F\347<(\216O\276\336]\005\276\024\3038>\007\327:>\311\006\\>\206f >\345\357]\276n*\t>\235\223\357\275\344\331\315\275\276\246M\276\246\331E<\t\3474>\203j0\2753XO>\346^:>^\356*\276\007\365G>$\374P\275/\242i=\021v\340\275\341T/\275\375\\\366\275C\320\220\275\310^\342=\020K)\276\325MY\276\3311\240\275\217n\031>0b\002\276\007(%;\247\316%<,\023\332<\020\327W>4\352\203=\371\340\036\276\3151\004\276\35444=<i\317=\213L\027>h\354\275\275\334o/\276\021\375\330=\212\021\263=\271b\304\275\231\342\207<\373\t\006\276w\347\275\275\351\210~=2\336\265=Kg\254\275N\202\001<\303|L\276\033\206\302\275\260\225B>\3028J\276E\342\217\272\371\274\024\276\341\352\224\273\301z\331\275a\253,>\203\'\031>\267i\027>1Q\001\275\2630C\275\243\311\217\275\354\037c=\332\000!>\330\306\272=q\000\361=\037\355D=\250\3677>\220\223\271\275M\355-\274kw\007>%\243\331\275 \300\316=\363\201\202\275~+\234\275~W\225\275\215g\022>\024V\331<\271\246\303=\010e\275\275\312\323\277=\225-*\276n\233\035>\351\232\223\275\201)\260=7\nB\276;\204U>+\016<\276\303\345\264\275\037(\271\275\245p\007<\376\276O:AP\322=&\021)\276\362\261\354\275\320u%>-^\211;\303F\227\274\224+\377\275\262\206\016:O\271U\275\327y\371\275s\373\\>Cs\354=`L\315=\316\210\260=:\261A\276,\312L>\335\274\347\275\256\343\263=y\206*\274&\371\007>h>\370=h\356\265\273\264Q\r\276R\235\220=h\206\270\275_e\037=s\377\r\276\211\264=\276\234\0017\276\340\034\340<\037\334S>z\214\264\273x\003\277\275\230\206@>\016&\261=\360:\257\275\277\3761>\272k\013\2766\233\251<\367\261\266=\271g[\276\301\214E\276\376\324\377=\205\344\335=\257\322\026>\006\332^\275\312\330+\276<\333X\2757\014\363\274o6`>\032S\226\273\313\317\270\275X\003*=\006C1>\345\014\312\275f\336=\276+\000\230<\303\000\211=\3776\203\273\361BW>\243\337\376\275\326\332\003\276\3158s;R\001\261=\026pB\275\025\262\016>\021g\334=\221\355{<{\025\261=\025h\247\275\274\256\016\276\275~\234=\025\354\035\276H1\252\275\256\025 \276\023\300P\276\324x\022\276\231\356)>OU7\275\213\000\360\275.@%>\"\333\323=\344\010@\276\367\277N\276>1_\274)\242\013>V3L>=\232&>\300N\016\276\037\344\204;\363\024\367=\315\025\353\274\272\022+\275E\373\006>\211L\354=ro#>\'\370\226\275\037\202\036\276t\353\031>\t\334\321\275\235\345G=\313\305\013>\233\177\025\276\256\277\223=\232\302\035>\n\r/\276\3179\251\275\372\342 >\007,;>`\327\346\275cJ\346=m./>\200w\\>%3\017\276[v&\275\303\331\311\275h\373W>\222C)\275b{\253\275\377?\026\276\351\215\007\276\324\2313\276\231E\026\276&\315Z\274)V\024\276\321\311\237\275\014a&\276\346\264\201\275\\\215\024>\257\246\025=\247v\253=\336\335?>\214R6>cD\032>*\366\022\276\236\026Q\276\001eM>\321\270\371=\355P\236\275C3d=\302!\"\274\010\007m\275\255\177$\276b\320\327:\353\241\364\275;zI<\221p\352\275]\373\r>\020\004\320=F\267$\276\370j<\276is:<\260\270A\276U-\016>G\014\250=ET\026=\r\317 \276\023vS\276f+\177\2738\240@\276\203\353P>&\253Y>$k\031\276\r\224->ED\027\276?\351\256=E\302h\274PI\026\276\245_\321=\323\350I\274\335WA\276\373\016\371\275\243\306\347\274\223C\372\275\376\367 >^( \275J\004\271\275K\206\374<\036\003\">\376f\266\275\333\256%>\\\\T>^;\270=U\244r=T.\027\276k\371U\276\210\310E\276\375\201\202<\344\000\272=S\"->l\206\227=\361\3742>\265\2103\276\277\223\333=\020\235#\276\314G\005=\r!H\276T\337\270\275\017\211\232\275\334\230i\2753\036&>\033\016N>\253\371\033>$n%\275\275\300\302< `-\276\206\215#>H\036K\276\222,\335\275 \223\354=\237D\315\275W}\003\276~2\250=\274|\014\274\345\236#>\255\020\"=ZBu\275o\241\247\275=Y\r>L\274\243\275\300\2615>\234U\256=j\"d\275[\270\034\275\277Kl<\334k\033\276\335;n\275\311\214\026\276\201\332\000>\376,W\276\367\"0>\005,\327;\004\220d\2745\031y=\022*\025\275\221\210\026\276\275\030\336;\255\303*=\275\275\253\275\220Wa>\26684\274o]\337\275\231\370\177=\210w\300\275\372~c>yfD>4]R<th\n\276\310\373\"\275\300\271\'>\227\337t\276\200\321\214=\004\354\027>\004\013_<\240\230\352\275\3043\374=\324\365:=\372\263(>\244\301\223\275\030vQ>c\3173\276\264Z.\276\352\360\317=\366\272\n\276\314\372\026\274\274\324!\276\004d<\276-\207Q\276s\216i\274M?O=9\t\263\275LxA\275t\352\360=R\370\212\275\177\2146=x\317\207\275\276\370\332;R\364\336\275K\352\016\276\247\360\255<\335\225%>\202\356\"\275\367\231\277=\337\301\005\275\267\2655\276_\376m\275lp\317=8j\205=$sa\274\317t=>htV\276\222U\373=\205\351\027\276\0316Z>\005Z\335<\004\311\233=\0000:\276\302\233Z>O\376{\275\346T\344\275g\304X\276;\273\213=,\215\274\275\363\027z\274Q}\231\275\200\270\242=\007HI\275\032\032\027\275F\240Y>\264\271A\2766m0\275\024;\376=\240Z\362=,ag\276\313E>>h\226\246:\007F\023>\310\346\340\274t\366\305<%\263\222;a\334\037>\346\274\037\2757-\366=\241OI\276])\316\275\\\267l\275\217T6>;\255\217=\006\030\234<\370\277\025\276\341\2623\276\200,\327\2757\300\203=\021;6\276\256\201\250=\255\340B\276\013N\003=c:\215\2728Y\270=s\257\t\276\211\007\361<\301wT>\00424=\220\263\021\276\213\214H<O\241o=U\243\264\274\203\224:\276\346\206\210=\000\317L>\035O\310=\271t\025>\362\264o\275>\003@\276\216\211:>\377Z\373\275\'\233\037\276\327\310\\\276k\374\227\275^I\002>\277\202:>~\334\007\276\275\220:\276~\257\317=d\'\331\275\354U\256=\317_\000\274\334K.\276\2354\337\275\007\226\267\274m=L>l@z\274z6?>3\202d=\226o\240\2724\252\253\275\251\254 \276h\036V\275go)>\245\252\216\275\216Rx\275n\220\251=\371F\037\276\364\026\256=eL.\276\331Z \276\230\313\322=\025\301\216=\200\275\233\275\324\3122\276\305S0>x\326D\276 \325\'>\226\022\202<\225\372B>p\325S\276 b\226\274(\203\224\275\220n\274\275rCX\276\216C<\274.e\370=\252\336\000\276\313\3671=\305\235H>\010o\025\276F%\224\275\263\200\311<w3\211\275(L\354;\203:\352=q\324\022>TiW\276a\010\332\275\\\377\025>*\031\020\275\362-\202<K&x\273\235\021\300\275\373\210\240=\376/}<w\025\301\275r\212A>}\033\202=\033\r\n>\352\333\342\275\352\000\210\275ALB\276 \222\265<\3331O>\006\203,\276Z\004\243=\274~\n\276h\267+\275C\017\\>5\202\362\2741\020\216<\034\223\022\274\022I$>@\302\037\276M?*>\361\237\247=\266\2006\276\211JO>\010\035w\275\014\262\025\275\235Z\254=\227\031\237\274\305%\026<\2058!\276\374s\322\275\335hA\276\n\322[\275=zF>\373\231\331=6\236\262=\203\237O=S9q\275\323\0012\276\323dO\275b5F=gP6>Z\322%\275\231\013\213\274\0025\372=\273\273 \276\035v+>\335tI\276H4\314=\020\036\033>\364{t=\266\225\n\274\315\252\030\276Jy]>g\000\334\274j!$>\342\"7>vK\024\276\256A\372\275\032,\274=\033\210\347\275\326\r\250\275\361\376\010>\035r\372\275\214i\322\275\232\332\017\276\360\241\324=\263\253{=\312.4>\007\321\'\275\rV\241=\203\231\224\273\352\247\006\276\200\027\237\275\201\025\016\276$\t\320\275\\\220\317\274\n\320\024\275\021\332\'\275\2227\027>\377\3324\276m\3719\276+\0139>\034;\355\275F>\201\274\373 \333\275\263\2230\276\372\257 >\335\261\365=\260\300\372=\336~*>\245d\'>R\344\364<\301\275X>97\310\275e\310\234=\300\224\267\275\271\214|=\310\300:<\342-\335\275\337\035?\275\3109\\\276>\370\351\275\342gM\276\2759#>\330\316\347\275\366\360V<\330\346R>\302\347\211=\354H\031=\014tX>;1-\274qn\001>\035\337\373<\374\214O\276xN\t\276\nD/\2766\210\257\275\317\016\010>\316\t<\276\254\227@\276 \033\317\275\331\363\365\275\276\313~={\341P\276\324\210\362<\336\266=>\365lS\276\332\234\343=\300d\301\275\177OE>I\327\027>\224$\334=R>*>r\007G\276\r\362\310=Ke<\276T\337P\276\344\3616\275)\t\027\275O\010\005<\274\344\206\2756\213\314;\265O\336=\204\270Y>\275\261\365\275G\206U>\247\256\221\275$\tT>\206R\305= \000)\276)57>Z_A=\341V\r\276\330,\">r\327I\276qB@<\302\215W>\267\226\021\275\225/\001\275$w9\276I\204\024>\214{\002\276v\341\313=\263q\370\275\037\204\233=[\2559\275\"\352O\274Ek\003>\020\324\220=#\351h\276\020&>=\211\311h>\330\203\003=b\3768=\370\301<=[\362M\276\354\2453>\230\216]\276bF,\2766h\363\275\357\277B\276\227\333\262\274n\234?<\335\331`>\265H\246\275\374\222`\276\357\',\276\204\'\341=\016\333\254\275p\323\002>7\3421\276\357OE\276\343\306E<Zw\327<\201\334\r\276\330\2041\276\000\352\227\275@\n\211\275_\335\312<(;\301\274\374;\250=\026\3434>\304\r\213=\203n\302=\276\347&<\314\265<\276\000\253\365<\313L*\276\024y\271\275\006RY<\273\276\021>\250\312\027\276\362o\342=S;\007>SZ3\276\233F\016>\365\200\016=D\277>=\213\323H=@\006\003=\023D\262\275|\237G\276\030w\335;O\373E>kXO>\315\t2\275k\031\243=\257\323\017>\226I\004=\303\336\346\275z\304O>\036\373!<u\034\"\276\177\023)>\350c\006>$fp>\371A1\276\206\\\365\275t\276\020\276\002\373G\275x\251<=\366\315\r\275V\347\205=\211d8>\0241\027>\215Lv=\'\006\205\275\006A3>_\301R>\314p\036\276\206\362\246=\337\247\347=\010Q\266\274\334r\377\275\221m:\274O\024\245\275XH+>\250\023\232=\357\361V\276\357}!>K\231\005=\202\204P\276\351\206I\276\351%\371=\277\333\327\273\3200#\276s\202\240;\267\322F\276\336q,\275\335d|=\271\343,\276\313F\333=x\267\300\275~\336#\276JN\033>\212=K\276\354\006\016>6\3427\276\356\231\214\274[H\333\275x\315\256\274\2432\267\275>\n\003\276\312\334\206\274\3574\026\276\005\366\240\274n\032\t\276\0352G>\262\234\337=\324MX\275\336\231Z\273\371\272\030>)@\340<\353\037_>6A2>4BJ\276\350P\"\276\240\026\356=,I3\276\262%[>\013\355L=\367m\373\275#\360\'>;\335\226\275\342\301\230\275\302\234\332=\262\320\023\276\372\262\374<\310yC>\235#H>\327\000\373=\330\344\342=8\003\214\275\007\315\">i\232Q=?\365\324\275\204\233\374=\360c\r\275\357y\002\276I\034\030\276\370\231W\276\"\340`<\256\323B\275\211\221Y\276\317`$=x2W\276\275F\014=\273P\350=\001\255\254\275\013L#\275\324\313N>\217E\253\275v\261\355\275\350=\246=\331r\222=C\326\212\275\336\200\301=\327\363\354=4\330+>\206\016|=+\2056>\3650\030\2763\204S>\337\3760\275\356p\231=\206P%>\201\002\030>\343\035\202\274\256:>>\371 \345<,\256i\275\362\313\326\274\352$R>M\002\341=U\306\245\274\224H2>\303\3629\275y;\356\275hu\262=\345\367\254;{ _=d\013\n>\223\210\027<,U2>V\304\016\276\357\231\233\275\215\347`\276AK\275\274\201\243\034\2752\364\327\275\231\301\310\275\344\256l=\306\177\277\275{\236\325\273\237U\007>t+\244\275M~\002\275h\310\035=B\330I\276\221\037\232\275\320\024>\276\373Y\345\275\236\3153\276\360\363^>}\347)>\2745\024\276\223\273o\275&\254\231\275\373e7>N~\3078\267\360\354<\302\352z={\300@\276*{/\275X,\013=\214\321#=6\257\017>\205(\351\275\330\244\241=\032\325M>\313\n<\276|\372\260\275\356:\334\273\017\343$>0r^>\004\222\n>-\307G\276G\357G\275\205\300\350\275~\007\241=\344\\2>\316\315\332=e\346;\276\363O\204\275I\263\273\275\3624D>\274\0012>\373\314\027>h\302\226\275\221\025\022\276\010\221\352\275\274W\022=V= =w\035\367\274\210\342\263\274\0106\325\275\223\236\362=~U&\276/\363\256<E`\255\275\206}\014>\343;\243\274Y\342\256=U\005\203\275\232\030\364\275\355\273\355<\211}F\272\200\317\311=\004\370\312\275ch\036>\250\206\374\275\247c\302\275]D\270=\25692>//o=\370>@>\302\303\267\275\177\3126\276\247\213\341\275\340~\024> ;\025=^\2349=M)F>%\372\255\275UZ\013=\322[Z\276\305\342\260=\354\214\350;\021\037\203\275\212\335\311\274\037BC\276y^8>\217\220\'\276yOg<\350H\206=\034\363);B\266\252=\226)\322=\207\'\341\272\206\035\322\274T\311\025\276\235>Y\275/\225\210\275\032\277\275=\272L(=+\213\177<\022\216@=y\336#>\216\002O\276\340E\207\275\305\360s\274l\027\356=\203\020R>\203\314\007>6s\330\275\031\363?>\344]\372=\336\367 >n\313\264=\265\200\002>.@@\275\2433\264\274D\n\343\275\220\351\210=?\033\313\275\3421\240<K\247\323\275z\372\325\275p\020\024>\t\013\3749\354\001X\276\3109\244=\362\251\026=@\177\203\274\327\271\343=h\001\023>\312Dd<\033L\026;{\350\017>\313\221<\276?86<\361\356\223\275\356*\033<m\364\213\275\272\021~=G\376\311=\343!!\275l$\355;\355\235\357<\301\217\017\276\224%\363\275\r\342\357=\001\373T>\337/\324=\363n\220=:HK>#\273O;4\205\">\347h\">\270\353\033>\200\033B\275)D\212=\027o-=:\306\035\276\t\201\211<\2073\361=s\265A\276ywP\276*n*\276I)b\275l\241\213=\342z\213=\341o\227<\037G]>S\214\376\274\367\225\361\275\3251\346\275\177\341e><\343\032\276\340K\322=\213\342/>\0141\232\275\324\220\307\274\n\026\356=\376\320\234\275\n\377\">2[\003\276\215\351;\276\324\316\352\275\324\217\267\275\270K\262\274\220\257\026><\313X\275&s\272\275>\342\n>\3157:\276`b2>Z\001O>1\013&>k[\n>\240\253\262=\374HB>\275o!>\303q8\276\257\344U>\211_\030>3\371\016\276\317 \377=?;&>x\'R=Q\031\031=\377\\\377=\213y\367\274V\365(\276\366\201\241\275?\007:\276\257\373\023=\274\374\t\276\306e\223=\227\331\230=\317\2430\276\005\010@\276\341\260&>\\\370M\274\001<\204\275#\032N>\341\254f\276\366\001\032>_\2320>\324D\207=\301\225\310=]\005\031\276\243\0004\276\267\0376>\027\004\351=\217[\264=q\372\033>,\353s\275Pp\032>\375q*>}~\225=+=5>\310\016\026>f\312\'>\3439T\275s]Z>\327\264=>\036\255\251<\230\366K\275Z\226\253;\362\357\024=)\025\317<V.\037=\022\263 >G\020\036\276\014s\247=\306\266\017\276\337G=\276\241j\252=\031{\303\275\247\237\217=\024\002\260\274\216l)\276\301>\226\275\367\256S\275T\313\030>\263\354\254\275\356P\345\275X\207\361\2751\354\262\275\'\377n\2754Q\264\275\276W\030\275\224u\017>h\265\226\275\351$\207\275Q\262)\276V\220\031>\3430\327=\331\360\001\276\000\'\202=\030\300,<\r\016#>\313F:\275\337;p=~\202;\276`a\216=)\245\362<\254\261\310=\003\025\007=\323N\376=6%R=\177\206\276\274$>l\2768\3116>/\333\271=\234`\222=\223S\352=\216\"\371:cL\204=d\233\327\275\363=n\274\002\031O>\226\203\036\276\367,\"\276H9+>r1.>xG\240\275\334\365N>\372\313\033>\240\251\250\275:\313\367\275 v\017\276n\031\337\274\234\1776\276\357\216\263=p\022\256<e\001\202=`\221\331\275\211p<\276\202\377\343<!]\351\275\'=\035=\247\324\257\2743\334\356=\341|E\276\243nA\276E]\230=\304\205\323=\275n\014\276m\232<\275\231\0355\276\372\304\014>\000\263\344\275q\354C>\010.\014<\216uI>\376\212\033\276\034\253U>\215\001F=\021\325\023\276\3579\317\275ld\022\276ff0\276\375\264\037\276\317\027\232=Hc\372=\305\311\257\275\210\021\223=09\'\2760\203E=\225\303\203=7b\035\276\310\0227>dJ.>\234$\350;\371\007[>\033\006J>j\000\036\275\355\326g\275euf=\275\026\036>\372<\032\276.\376\326=x\3200\275\274a\346\275+S,\276z7\206=)\323\355\2758\311\354\275\325\351\227\275W\233\303<]\005B>\343\265a>\017\033@\276\032-N\276+R>\276\002\337\261<\032\017\030\276\030S)\276?\250\006\276\262d\373\275\337\227C>F\307#=C\344\004>\205\250[\276i\"Z\276\220\316O=\037\3140>\221\224\027\276\310\357M\276/\037\240=\035,H>,\260\n\276\304\034\032>\332\370\260\275\365\001C\275\020\242r=p\243S\276\354b\035\276\342\301P>\000\322\034>\034E \276\007!\340\275L~,\276E\354Y>\314\271\203=\257%L>\222%\033=\213\260\261\275t\236;\276\3439\002>&x\227\273\347\354\336\274O\301J>\033\0273\275\213\307\326\275\305\224G>\3371>>\204\277\224\275(\033\241<\325\267\331<\215\rB=\236hQ=h<V=\017\321\\\275_\307\205=\374r+>\260\261\236\274\345\257\004>\314\361U<1\2039\276`\003\237\2751<\362=\260^\244\275\024\231+\276.zY\275\017*\034>\333\n~\275\340\270\034\276s\255\253:\367\264`>?kW\276\000M\001\276ji@>X\336\007>-46\2764\362\030>+M\235=F\030\214\271:\034j=O\256H>)?\022\276\013\232\305=\351\307>>\262\3527\274\032\024\217\275{\254\304\275Iu[\275\255tJ\276\215\371\353\273\n\276*\276\t\211^\274\360\345C>\344E >\342U%=V\\D=\357{\257=q\243P\276\220\274\251\275~F~;\314\251]\276\006\261H=\244p/\276\000\374,>-\223K>\342\310\261=\346\244\026\276\247x5\276\306H@=E\217\014\276\356<<>2\004.\276\237+\222\275dQ\213\275l\244\035\276]\374\217\275\373/0\275\274%\315\275S\241\362=B\"4>\342\240\220=\267q\036\275\2166\332<\321\264\213=\277x&\275\016L,\276\254\247\235\2750\300\310;T\\\231\275\256\356\206\275X\000Y<!\366A>,\220e\275g\r\025\276\'\030(\276L,$=\006\347t\275\031\2402\276a\027\316=\273\203m\275\347%\370=E\000\007\276q\354$<\245\342-=\320\345e\274rm\323\272\332\r\022\276\254\2209>e&\333\275*\217\225\275\310`\034\276\317<,>\345\265\336=B\274\326=5\277b>{\033\304=\352\267\200\275\000\347\305=\210~.>\004\3030\276\315\006\241\274\023d@\276=\274\245<T\340i\275/\222\001\275|\353\002\275\'TG\275\361\247X>\20618>\343\031.>\356\234\">m9N\276\303V\304=\021\177\231\275\'q\013\276\352\362\233\275U67>\314\216\357\275\246\377U\276%4^\275O#\023>\361\207\357\275\265\006\232<#\371]<\016\276U>acK\276\016\253\336<\220\341\037<\252\363[>Q\335\353\275\336>\201=\341|\344=\023/\007\276\201\017]:\266Lm\275\241\205j=R\221o;\312N\245\275\356?w\274)P\363=b\231?>\230S\231\275\212\352\366\275\014\372N\275|\241_=\\\375\374\275\246;!\276}\222 >\375\206\320\274+\357\262=\211\035c<L\2032\275R\203\327:-\245\270=\216\375y=\271\231\342\275\272\267\026>\310\205\r>\370\2278>\017\241\'\276\361A\315=\223\202X>6-V>~\322\007>P\255E\276\303}*\275S\254\250=\005\356\030=\367\270\016>\260\275<>+\342\013>4]y=\216\246\276\274\226*\010>6\203\345=w\226\004>0\310*>\305\024\021>\310\314\036>\250\024\336<\363\272\023>\033\211\355=\374\271\033\276\337\227)\276\360\243]=u\311\030=\205\342\004>-\214l>\221Q\334=u\260w=9\256,>\017{R>y\346T\276\310NT>\203\244->v\246C\276X\255\t>U\023\024\276\270\007\241:\345\334d=\306\320\252=\255\224\201=\263\207\003>\357\2272>\211\354,\276\353~\n<\177\025%=k\310%\276\\\231S>\354\300\010\275\377\205\\>\r\265g\274O\325y=\321\2568\276\346\225\006\276\rV\310\275\340\323\031\276\014\243\205=#\177\316\275\240(\021\276\265\024\377=\211U\263\275\0060\214\275\265\005\n=\006V\014\276\367\211a>L\334\r>\322\302,\275;@\225\275\275\3457\276\202m\002>r.&\276a{\200\275<\371B\272\236\033\371=v3\316=\342\031\022\276\232^\220\2751O\035\276MI/\276\224-\216=?Mz\275_\261\233\275\233\240\366\275\001\270\226=:\rb=\236\'\227<\207\361\034>\377\365{=]\305\010>\200\027\221=d\230\027>\030\306,>\241\"\222=\231\005:=f\351\365;\352\302J\275\264\0346>\310\0209>;i6\276k\2238\275\201K\350<_\250%\276:f\251<\307\020\276\275H7\025\276\001\241@><\224\317\275Z\000\270=8z[>\206\026J>\265\341N\276\366\350P>\373\361\335\275\257\210K\276UgW\275\036\363F>\337;\221=\324T\255\273\274$\234\275\302\315\030\276\276\245(\276^9\252=\363\\\242\275\r\310\246=\307TC\276\325\033E\2765k\215\273\rB?>\360xg\276\016U*\275`}W\276\270-\271\275\321cM\275\371\032G\276\003\301`>z\245\367\274"
      }
    }
  }
}
node {
  name: "model_1/time_distributed/model/dense_1/MatMul/ReadVariableOp"
  op: "Identity"
  input: "model_1/time_distributed/model/dense_1/MatMul/ReadVariableOp/resource"
  attr {
    key: "T"
    value {
      type: DT_FLOAT
    }
  }
}
node {
  name: "model_1/time_distributed/model/dense_1/MatMul"
  op: "MatMul"
  input: "model_1/time_distributed/model/activation/Relu"
  input: "model_1/time_distributed/model/dense_1/MatMul/ReadVariableOp"
  attr {
    key: "T"
    value {
      type: DT_FLOAT
    }
  }
  attr {
    key: "transpose_a"
    value {
      b: false
    }
  }
  attr {
    key: "transpose_b"
    value {
      b: false
    }
  }
}
node {
  name: "model_1/time_distributed/model/dense_1/BiasAdd/ReadVariableOp/resource"
  op: "Const"
  attr {
    key: "dtype"
    value {
      type: DT_FLOAT
    }
  }
  attr {
    key: "value"
    value {
      tensor {
        dtype: DT_FLOAT
        tensor_shape {
          dim {
            size: 64
          }
        }
        tensor_content: "5.\350;KC\214\273]\014\217;#\304\210\274\336\260`;+>c\272\2005(\273\021\037\337\273M\t\230:\314\243%;8\227\265<\353\234\360;4\255\34395\376\271<Qv\n\275rf\026\273p\357\325:\225\333\207;J:M\274\311.8<\010G\006\274%\3102\273\2419\004\274T\334\243:\314\304\n\273Md\220\2732\310\000<\"2%;!\201A\273\\\356\004\273\352\342@;*\276\350;v\224\375\273\373Tq<\264]\275;c.\354;\013&R;\214\333\002<z\312s\273\200\232\270;\257\035\030\274\241\003\317;\203\217\354;\324\250P8>\313k<\226\207\317<\231b2\273h\367\330;\351_\346\273O\346\302\272\2060!<Egp\2731/K\274\331\265\024\274\353\242\223\273\202\250\343;\3707!\274\003\3720<\265P\254\272\nh\340;\204m\273;\0337~:\035\255\317\273\250\340J<"
      }
    }
  }
}
node {
  name: "model_1/time_distributed/model/dense_1/BiasAdd/ReadVariableOp"
  op: "Identity"
  input: "model_1/time_distributed/model/dense_1/BiasAdd/ReadVariableOp/resource"
  attr {
    key: "T"
    value {
      type: DT_FLOAT
    }
  }
}
node {
  name: "model_1/time_distributed/model/dense_1/BiasAdd"
  op: "BiasAdd"
  input: "model_1/time_distributed/model/dense_1/MatMul"
  input: "model_1/time_distributed/model/dense_1/BiasAdd/ReadVariableOp"
  attr {
    key: "T"
    value {
      type: DT_FLOAT
    }
  }
  attr {
    key: "data_format"
    value {
      s: "NHWC"
    }
  }
}
node {
  name: "model_1/time_distributed/model/activation_1/Relu"
  op: "Relu"
  input: "model_1/time_distributed/model/dense_1/BiasAdd"
  attr {
    key: "T"
    value {
      type: DT_FLOAT
    }
  }
}
node {
  name: "model_1/time_distributed/model/dense_2/MatMul/ReadVariableOp/resource"
  op: "Const"
  attr {
    key: "dtype"
    value {
      type: DT_FLOAT
    }
  }
  attr {
    key: "value"
    value {
      tensor {
        dtype: DT_FLOAT
        tensor_shape {
          dim {
            size: 64
          }
          dim {
            size: 256
          }
        }
        tensor_content: "wS\220\275g\255\003\275s\221\240<\033\034\203\275\223)\320=C\366\250\275\021=\337\275\271\001\346=\357\t\237=\"`\351<]\362\201=-\024\213=H\204\351\2741*\237=\247\263\352<\306?\370\275\264e\016>\n|\216\275\226\333f\275\216\263\262=oE\375\275\374$\"=h\001\t>\225\033\317=V\350\356\275Y\0373\274G\355\342=\322,\024\275\330\205\200\274\362\211 \275\2322\236=u\332\002>[f\305=\355n\350=Il\206\275\370\026\002>\355\003\271=\303\214\203=\313\326b\275\317,\014\274\"\231\220\275\022Z\267<KS.=>p\264\2752\007\205\273M\007\266=\243\317\333=\006\300\216\2754\251>=\312\303\326\274h\302\263<\251C\305=\373,\335=bM\327=\374,\243\275\003O\376\274\316\230\371\275~\232\275=T\261\204=F\312I=^tD\275\205\211\247=\267O\026<\237\256\304<\365V\247=\246\230\250\273\017F\217=\002\335\222<1\250\206\274\215\025l\275\t/q<\345\000\275<\026\316\366<l\364\325\275D\214\007\276\300G\341\274\235\334\337=\354\3555\273\326\327\321=\372\215\255=1\252\336=Y\031~=\033\263\002\276I\243\325\2755Z\373<\3159\006=\206\362\205=\036\022\243\275\252\216h=7\236\323=5m\251<\277\242\230=\3101\240=%\324h=\355e\n>Dl\312\275\2512-=h\"\254=P\200\025\275\247\007\323=\313\241\233=\321\277\271=<\315\266\275q\365\303<\326\354J=\224\t\020<4\251\n<]b\004>\201\360*\275\222\305\237:\005\241\344=\027\275;\275n\026\300=\016E\013>w\037V=\023\032\177\275\311\246\021>j\003\017\276\277\367\034=\032\\\362\275\204q\r>\202\202\314=F\363u=(\322\304=rF\357;\270\273\373\275\307\271\207<e\212u=\310>\025\274R\263\214=>\262\254\275d5\221=\014\373\377=\313\317\217\273\306W\231\275\036\027\274\275\022\305\261\275\215\312\241=H\371\331=\333\327\010\276_?\332\275\215\031\030=\251\005\006\276\006\301\274=1\272\001>#@\370\275\326:\301=\314\324\004>\265\376Z\2742\210\227\275\252\030\334\275\323I}\275}\022\007>\230s\362\275\275\305\345=\027\327\224\275q\212\013\275G$\003\276T\307\350\275\230\035\234=\264\022\225=G6\004\274z\272\324\275\277%,=\227\251\237\275\343\000\204\273\352\035\320<C}\300\275f\026\240\274Vb%\275\r\265p\274\225$\323\275:\233\325<\344\366\003\273]\021a\275\345Zs\275\257\311\201\275\333\214\337\275MO\307=\232\214\r=R\351\003\276]O\345\275\213x\001>\254<}=\222W\017\275\262#\315<\311\272\363=^(\232=D\016\010>\316|\303=\014\340\214=\202Q\235\274\2543\253\275*\025\326<}\257\213=eFV=3M\005\2762N\240\275\205\340\n\276M\007\242<\360\021\240\275\247N\303=\364\023\002>\245\0223\275\206\344\237=1\210 =\3113\216\275\n\325\005\276\215\024\336=*L\t>\020#[=\336\257E=l_\274\275\246\241\374\275.4v=\0248\007\276\3668\304\275\316\025\215<9|\365<Ca:\275\350\237\366\275\351\341\t>\367L\261=jh\312=R\223\210\275\302R\001>\207\275N\275\343\251g\274[\001\326<~\234X\275\272\213\323<;\253\'\274\213\353\001>\331\216\010\275\366j\203\275\023\307\030=9\244>=\240\200g=\213\310\320=\034,\006>\256\244\372\274\232s\265;\204\311\177\275\3234\327=\271{\367\274\026\270P=/\360A=\212\262\014>\317\261\216\274o\234\005\276\231\261\350=YH;\275)\300\004\275\2257z=\366\201\n>\346\017\330\274M\255\244=5\3253\275\345[\202<q\227M\275-\017r=\347\301%\2748O\006>3\243\224\275\"\2160\275\315\271\010=\214\353\010\276\311\233\351<\331\356R=\316\317\322\275:\234\340=\006\310\324<\n\316\251\275\365s\216\273\220\264\323<\002\323\336=\203\234\301\274\357\352\000\276\224\202\227=8\273\217\275\245\243\010>0W\3579\354{\363\272\n\356j<\004J\321=]\315\214\272Q\265\236=[\254\334= M\005\275\004\212\\\273\337{\204=\214\235\342=P;\003\276\310\240\203\275\177\377\313<\'\006x\275?y\004\275\030\237b=}\364v=\306\366\366\275M\313\000>\363\'\231\275\306\230\201=%\377\246\274#\037\311\274\330\236\007\276\375c\005\276\223\326\r\275\303r\205<\006\252)=\216\303\302=_]\336<\220\324\311=\177\225\231=\343<\336=7}y\275\300\213\277\275\232\371\334\273\236\245\377=\005\360\305=\031\215\207=n\223\266=2\275\214\273\223\375\013\275n\212\245\275_\252\203=\324\373\347=\312\214y=u\376\314\275\334\334\222\275zT\306\275ehy=\350\025\205\275\204\232\035=\255J\354=\270\1777\274\0137i\275\333Va<{ \n\276\250\301\250=\254\246G\274\357\000\254\275\2215\030=R1\362\275\306\023\234\275<\353\212\275\250\316\373=\262\340\024\274\027\235\217=\274\000\353=.\375\374\275!\271\216=\236\261\201;9o\302=\210\336-\274+\356\377<\2450\340\275\332\021\277\275\022#\273=\034T\264<[\300\035\275xX\327\273s\322\313\275\344j\245<0\306\022<\370B\312=\037\325\242\275^\247\302\274/\224\007>\341\037\211\2741\007\251<\0071\323=$\360\265=\033\337\226\275\031\201\355\275\2553\320<\36569\275\251\271\341=\261\312.=\255\234\021\275e\3515=\223\325\345\275\023\266A=\361\211B\275#Q\241\272|i\264\275\002\232\265\275/\244\337=\346\003\316=\355\266R\275.\332\355=A\340\232=\257\330Q=\234o\377\275\251]\001;\315\006W\274\246\361\213\275_V\234\275\320\304\035\275\337z\336<Y\257]=ya\372=\322\031\367<{\037\376:\347LT\275#\316\352\274{\274\346\273g W=\202\352\020\274\177H`<\251Q\250\275\202\341\026\274\037\240\232=\304\215\254\275jo\322<h\357\311\273\332\010\273\2755\212\310\275.\313\355=\025=\207\275\366\225\312=D\214l=\241\275\252\275\037\354\007\272\345%0=\036\240U\275-\357e=q\343\243\274\263\210#=\247\221\245\275\201G|\275\333\357\271\275l\025\t\275\361yb\275~\002\271\275\243\033\315\275\331\177\224\274\362\000k\272>k\367\275}3\005\276N]4=\3572\210\274\341\311\336=\332c\"=\327\376\233=\325\'\355=@\333\000\276D\300\330=\"\014\017=v\265\226\273\3027\007\276_}Y\275\244\350\200\275\205\032\004>\276N\333\275\356m\001\276\341AL\274\337\311\313\274\342\022i\275s\\\221=\200\340\000\276\237\221\n>v\311O=rt3=\304\234\333\275\313<p\273q\244!=8\024v<H\245\203\275\310d\247<\003w\n\276\342<\274\275\352\017\341=Rl`\273\3648\263\275[\342\345\274\313j\367<\241\361\305=\020\264\360\275\333?\302\275\357%\364\275\271wA=:\330\376=\213a\026\275u\321\340=\360H\276\275\025\017\375\275\0375\307<&S)\275\226\267\224\275j\377\362=\260\\\353\2744a\337=F\r\225=\217u\250\2751g\374=\032$\311\274\346\223\206=\203\333\223=\344\231\276<\036(\260=\261\202\240\273\227.\317\274_v{=\2057O=\274~\236=\221?\370\275\322)\224=\327\020\255=\226>\377=\\\003\005\276b\027\251\275\204>\031\275\254\343?\275a\261q=\017;\242=\270\207\244\274u\326\260=f\364\353\275\226\227\357==T\002\276\270\342\260\273p\246i\275y\200\226\275\276\263\220\275\225B\204\274\327TL\275\230\022j=\244[?=\236m\010\276OFY<\277\320\352<\376\247@\275\200\373\377=\354\355\025\275\035\324\323\274!\243\347\274\232\006\241;b\216\202=\260.\252=%g><\323\253\377\275\ns\242\275\210-\344;\346\377\005\276\020\033t=\310]\267\275&~\275=\374#\007\273\277\302\377=\202\031\266=\024J\032<;\n\217<\250\243\333<\347d\002>\300z\007\276l\022\262\275\351~\245\275mv\331=3l\364=\360&\204=T\312\r>\t\351\227\275\010\357\305<\236\021\377<_v\313\275\353\255\016>\017s\213=5^s=\2123\277<j\014\306=B\032\247=\340w\002\276\304\304x\275\247R^=\016w\251\275}\026\271<\3177\361\275\021\364q=\000d\257\274D\336\r<\257\367\203\275\2568\317=^\306\026\275\370\362\022\275\004x\241\274\364\373\321<\366\326\224=xd\276\274p\300\026\275U\223\347=\336\2172\275\216\002\002>\0370\376=Y\302\361=5C\n>\306\321\002>\244\224\013\276\374A\000>{\001w=3w\250=\230)\332\275Q\010\352\275\001\332\352\275\033\310\265\275i\216S=\301\215\262\274\037\251\323\275\3013\r\275\346X\364=\256\007\256=\"\"\276=\2464L\275\213=\000\276X>\t=\220\207\310\275\200\204\311<\3577:=\202\235\343\275\363\000\243=\333\274\353=\345\206\352=\035\340\303<O\224\t>0\223\226=L\202\322=Sd\000=\320\005\334=\357M\222;\210\300_\275~9_=\271\210\233=\003\322\001>\252m\013\276\373n\350\275\207+E\275v\252\002<#\341\376=\010\335\003>b7g=\005R\215\275\242\237\337=r\371\001\276@\260\302\275\237\026\005\275\001\344\002\275l\"\306\274 L\221\275)\360\030=\026\206\315=\366\324\300=\033[\305=\376\365L<\273\214i\275\212\314\227<\361.\252\275w\315\231\275\362k\270\275A\005\t\276\n+\321\275\231\331\351=\323\000<\273hm\330= \362\013>\"X%\275\214\211`<V\215\217<\2031\326=P]\327\275\022\303\241\274\272\004\r>\352\3424=\000.6=\350\023c=\016\352\363\273j\006R=\303\202\335\275\243\225@\275\003\207l\275~\343\017>\363\221\307\274}\033?=Cv\277=\364\316\361=\277\276\202<J\223\301=\252\343\354<\314TF=\224(\351\275k[\r={/T\275\032\2166\274\364}\327;\237\213\235\274\325\357\265=c\010\324=cd\364<\302=\212=)\360\n>V!J\275t\014z=\224p\014>\207\257\237=\362D\363\275\r\343\236\275\025\343y=\247\rE\275W\353\016=\266\3601<[{\216=\241\241\t=\245\220\267=\214\211\232\275\234\260$\274\276#\006\276w5\222\275\325\006\357=\312\004\226\275c\327\253\275w\357\366\275\0350\357\273xb\221\275\3378\211\275\246}\354<\247G\001>\021\037\223\2755g\013\276\353H\027<\242^X\275\341\345\277\275v\343\231\275\214\220\354\275\357\016\246\275\347\353\213\275{H\371\275\371\253\271=\003O\203\274q\341\361<\010\205\234\275\277\222\300\275\t\334,\275\226\261\305;\326K\261=c\330,\275\177}T\275\013\263\334<\207\234\271=\024pE\275\203\027\312=-!\223\275\267Pe\272w\224\005\276C\313\372<|\000\010<\301\275\332\275Q?\026\275\217\246O\275-\3722=N\303\346=_\317\222\271M`\r\276\225\376\326\274\303\241|\275\311\036\210\275J\017\020<OS\307\275\024\246h\275_\n\212\275\341\216\354\275\020\276\266\275jT\221\274\2026\000\276\325?\364=\357\231!<\325q\202\275\353\261\010<\310\013>=\253\265/=\"\372\020\274\210\334]\275j(\367;\336\251\202\275\322\254\325=XJ\206=**\336=\366\337\211<\264d\020>~\205\212\275\364\240\211\275Q\004\257=W\022\t>\362x\270==\301\314\275\036\026S;l]\013>?\024V=\263\013\207\274\261qE\275+\205R=\301\341\266\275\253m&=>\210\233\275\263\345\325=\225\324B=\203\001\323\275( \362=\204\377\203\275\263\036\277=\030v\310=\323#\020=\037\365S\275\2225\211=\316\247\000>\341\356A\273\217\314`\275\211\262\214\275\324z\316\273\250\313\343=\3626\262:+\250\241=`\276\203\274\356\346\212=\201\025\256=5\005\323=\010`\225\275\216+\227=&\227;=\032Y\375\275_D\326\274\215(\201\273]\2052=\265\240.=\254Fg\275Ga0=\306T\324=}\200\201\275Z\t\014\276m\332\306=\372\005m\275v->=EE\306=4(\306=\276\363\007>\026\271\004\276\222\017\006=\231u\345\275\037t\177\275\267I\344=>-\366\275!X)\274\203\351\232\275\264\270\215\275$&\001\276\022\316\313\274\346\367\310<\323r\204=\006(\272\2747\020\261=\334[\004\276x\334\334\275\305\257\355=\264\335\207\275\361\"\241=m\221\233\275\361\316\361\275f\032\244\274\005\333\326<s\215\356=\270\260\222\274i\016\371=\027\303\230\275\204+\021\276\334\367\007=\304\327\2746\243\314Z\275<\346\200=\272\002;\275\270\006\336=\351\3719\274Jh\300\273\2130\206;I\236D=(S\305\275\361\215\001\275v\024\302\273P)\354\275\221\272\332\274\243\357\340<V\364\035\275{f\325\275H#\026>\372\342R=A\022\212\274\3709\343\271NL\314\275\272\351\321\275\300\333\024\2746\002\320\2735V\263=\220\026\003>/\306\351=\342\351{\274F\304\023\275!\340\250\275\235\306\355\275\037\301\006\276l\330{=m:\266=)\025j=\264 \"\274/\246\246=\005\023\371\275Q#\301\274:rU=\373\341\021=\276a!<\207\310\031\272\335t\256=\363\025\370\275\027\3008<-\3556\275J=\266\275S\t\302=P\'\351\275O\224d=Z\364[\274\027D\004\276\3543\342\274\\\325\343=\333`\365=\377\345\201\275\363\204\336=\312\376%\275#ks=\2242\227\275BO\333<\310\327\253\275\245Y\333\275\370\212\310\275>\227\343\275U\003\001\276\237;\270=\373m\245=\264\254\003\275\227\347\320=j\375\305=\351f\204\275\207\221\n>\201\022\250=\033\367\337<_\356<\275\t7b\274\374BA\275\032\027\363\275~\354\010\276\346\360\007\276\322\241\251\274M\351,=\230\306\370=\237\026\247=\274<\347\2753\035c\275\247Q\356<O\022\010>\321N\341\275/*\022\275\tL\212\275\255\250<\275\200\213\342\274\337\255\374\275u\342\313<\343\222\005\276)N/\275L7\244\275\370\227.=%\274\333<\262\302\203\275\376\034\373<I\2314=B\352[<\211\037\002\276\007\374\251=\356<\270\275\017$c=\322W\314\274+\003\276=\302\037\250=\34102=\340z\272\275\312g\230<\234\252\377\275\016r\303\275v\331c\275\\\316\343=TA\247=\033\365\253\275~7\026\275hK9\274\357\326\207\275FB\344=\020\231\267\274!\251\263\275L\325\231=\031U\330=m\223^<Pia\275\211%\272\273\262E\024\276?\010\t=J\322\244=K8n=m\302\361=\010Y\\\275\240\305\002\275\302\354\250\275\001A\260=2K\327=\256\275\004={CF\272vn\013<\244\364\310=\366\320\331=\347\002\245;Y\205\016=\025\023<\275e\225\352=\336Di=\001\007\362\273\255\271\335\275\312\\\326=\317\300\357\275\002\260\354\272\005s\t\276X\313M=P\t\325\275W\027b\2759PJ\275\377\263\024=\006\227\006>\331(\242\274\215\334i<\270\350(\2749s\371\273\307\035\222\273\214\242\250\274mi\270<\n\311\343\274c\0306=\356\r\t\276\333\376\367\274.\n\355\274\023\310\264=Lw\321\274\243\027\262=\211\'\326=\223Ah\275X\024\014\274\374\020 \275\301\230\006>\035\177\277<\0305t\275\331a\216\275\2771\231=\316\207\226=\337\257\317<\301v\367\274\023\335r\275\363@\315=\357\014\247<:_\016>0qO\275?\264\235\275R9\323\275\273\007{=\023\224\373=|w\240=V`f=U\005\223\275\247\264\026\275\020\030\017=\357N\215=\232%T\275\0011\231=\367nO=\357\016\323\274I\000\337\275\231\320\010>\0050\005>m\272\277\275_\032\003>WK\344\275\333\321\203=0%b:\225\361\000\276\244\236\326=k3\034<\034\367\010\276\362\214\275\275\316L\230\275Gg\333\273+Z\013\275]\223\201\275\240\371\203\275\305\000\013=\214b[=m\245\026\275O\322\315\275\363\276(=\351\201\352<\233\034\205=\206\325\004>\317\030\324=PbR\275\232=\232\274\236:\336=\324\316\023=\347\273D\275Ka\200=\326?\034=b#\360\274\326\336\000\276\021\370u\2755W`<\204x\'=\250%E=\364\020\330<8\"I<<\331\371=\337\n\014\276\334\250\354<a\2400\275\252\332\376=\005\332\010\275\312\036\002==`\240\275=\035\307\275\311\305c\275=w\302=0{\210={\327I<*\364\036=\\p\237\275\265+\002>Fsm=\356\340s=\327\206\202\274\345\"\372\275\001\276\213\275\177F\014\274\34109=#\346\022\275\323\223\277\275a\033r\275\320\253\262=\033\363\360<\275\301\255=\210I\246\275\333\302\313=\004p\306\2743\221\311=RFj\275\301\303/\275\3518\312\274wu\315:\314\311\253\275\"l\314\275G>\220\274\357\337\232=\301\031\266=\371\254)\271\270j\217=\251\360\267=\276\377\001>\004\346\230=N\017v=\235/*\275\322\235\220=\205h\330=k(\246=X\231\023=\023\372\236\275\014\224e\275\325p\352=\017y\252=2\370#\274\250\237\320\275\223\336\003>\346\311v;U\354@=IP\216\275\340\013\213=\204&\031\274\254a\254\275\237i\331=\347N\001>\034\264\300<\213}\207=\234\222\002\276\350s\336=\3200\277<{\000\272;0\353\204<\324\\\213\275\306\374g<r}\341=\347\030\240=cO\235\274@$\016\276\0201\341\275\352\024\323<\363\035\336\275.\201\336\275\316\213\331\275\005\216y<\262\273r=\030\2478<\303\203\355\275\353\352\311\275\322\220\350=\273\346X\275k\227\365=(a}\274rE\266\274\221\026\007>\351\004\000>\212e\005=\3055\362=\322\200\013=2\346\335\275d\264r\275\305\316==-K\276\274\253\354S=w\252\014=,t\306\275\017\375\371\275\243\213T\275\n5\030=|\252\366=\205B\377\274\347QH\275j\n\002\276V-\241\275;\245\257\275\226\n\214\275\302n(={\'\230=\026tm=\336/\360\275\351P~=d%\341=*1\247<\364\262\014\276\316\021\207=\324\236\020\273=u\245\275P=\234=`Cw\274\\Z\211=\312\220\316\275M\271\237\275\202\310\231\275\202t\224=H7\241\275\343\357\224\275\004\234\232\275>\035^<\344O8<\370\252\364;\016\206-\275\327D\013=\026\365\232\275@\363\270=\203\235\021=n\310A\274\240\001R=p\036\367\275\031\357\251\274\353%H=y\254\355\275\035\376@<\230e\023\275\275B\365\275\252\270\307=\320\020\256\275\311r\261\275\347\312\025\275)\321u\275\225E\032\275\004\214\353\2759\312\343=\360 \203<%\022\324=f\"M\275\256\246N\275\361\274\341\275\314\275\002\276\267\000\000\276\305G\340=\006\257\201=\223ZZ\275zy\326=\236\274\307=H\256-=\017\206\032\275\316\267\302=P\317\361\275\252]\250\275a2\245=]\306\250=\206f\223=\363q\345=\211d\352\274S\203\263=\256\373\017\275\003kV=S\376\002\274`\032^\275\377d\235=9?\202\275\342\024\233=`\221\243=\027\373V\275\313\027\004>\007\307\007=)y\354=\375b\024=\n{\274\275<x\014\276\372b\004=M\350F;-\204\357\275j]\313=L\276\361\275T\027\250\274\201\352z\275\273\3745=\315\375\226=\010\017y=\223@5=wm\217=\254%A<\206\363\324\275\016;%=\375&Y=\336\"F\275i\001(\275\305\366\036<\213\215\372\275\026K\246=\3077\005\276i\250\203\275)-\342=(jC\275\316\007\t>o\013\311=\340\372<\274\351J\037\275\274Vp=\212\025_\275p\207r=\334F\371=\2001\002\2768KL\275\230\025\336\275\221\355B\274\343\\\336=f)\300\275\371\205\005>_\021l\275\202r\270=+\336\007>\260\025\225=b\027,=\245\222\234\275XOo=\262\372\027\2759p\235\275\354c\354=\222j\"=\262-\235\274\032\315\310=cZ\207\275\003\222\240<e^\366=\313\317\017=\302\311\t>\270\327\264=\337|x=q\004\022\275\000\352\245\275\214\334e\275[\370\005\276\334\357\254=4\214\014\273+:\321=N\222\324=\255\312\200=\252y\026=r\234\303\275\261\022\335\275\003\'K=\233\000\373\275\211\245\234:\336\276\207=mq\321<\331W\360=\tv\276<%\270\330=\244\202\246\274\'X\301=D\264m\275^\210\205=\2411\301=JxH\275\231w\212\275\034f\345\275\354\367\375\2753\341_=\0006M\2742\017\351\274\033#\351<\255~\221\275\220*\301\274\320\004\374=Q\003J<\025v\324=5\320\245<\271\241\347\274\260\301|=\301\021\357\275\004x\t\276k5\001\276\256\206\t>G\327\023>,\325>\2742\256\343<\375\205\255=W\376\001\276)\210\324<\235\264\333=7]\305=%z\271\275\031\'\226\275\257\213\010\276U\222\327; \245\177=\220\311\210=\326\272\006>8c\320\275\300\225\321<R5\267\275L\251\324\275\323TF=\276\255\273\2759l}=\353\256\333\275O\225\n\276@\223d\275\331\361\252\275j\254O=rh\t<D\025\226\274z(\000\276\241\332\013>\262\311|=\343js<\330X\n\276\373;\327\275\\\037\365\275T\322`\275\327\026\260=\026\r~\275-as<\307p\351=<\253\002>j\242\010>\217\010\332=\030\321\254\274\225L\026=R\330\374=\201\326\267=f\326\307=>\022\203=\240vh<\273\227\241=Y\037\211=y\212\201\275\033\376o=n\372\037=\252\362\242\274\r\307+\275G\022:\275^\201M;{\331\272\275k\024\000>\272\343\265\274\020\213\270\274\252>\262<M\315\203\275\311\257\207\275\277YD=!A\\=\207qy<\354\351\001\275\tP\313\274<d6\275\023\270\024;\210m\247\274tW\225<\206K\311=rw\221=\227\372\320\275>\030\360=\243`\213\273\266\352\325\274\200\356\003>\246\3454\275\005C =\302\301R\275\327G\233\274R\207\000\274|\301@\274\350}O=fK8\275\2475\250=+\344\033\275\246\013\243=\371v+=\211\'\360\275eur\274\272\344\334=\332\210\220<\241\226I=lE\316<f\"\013=\247l\320=\352\236y<\354\023a=\230\306D\275\245\n\211\275\024e@=\313\344\336=6\253\010>\271\035[=\233J\353\275\023\025S\274\303h\310\274C&\367<\037\024\003>\356\203\363\275\2166\222\274\252\023\237\275N\212r\275\020\010|\2744\252\007>FG\r>\216Q\370=\262c\224=}i\215=p\202\327=T\016\234:e&\335<\360\234Z=c;O\275?x\315=\207\005\023\275\\\242\334\275\217\001\274=\316\260y\274\023\031\202<\261\014\200\274\331%\013=\367a\224=\323^\210\275\034]\000\275\370\023\351=y\240\237=\177\033\037\2750tQ\275\274f9:\324\221\201\273\304X\333\275\341$\362=\356A}\275\310?_\273\333\306\353=\035\323\361=!\326\325\275\223m\267=\364.\343=L\346\356\275V`\277=\305\255\215=\236\003\271=\256\221\266\275\246\0147\274q\216\244\274O)\332\275\017\212\255\275\367+\345\275\013\201\333<\351`\217\274\324\247\370=1\004\016\276NO\221\275(\206\263=\004Q\t>\206C\346<\177\237\005\276\370\366\373=\202\004\302=vn\223\2750\376{\275V\251\007>@\265J=\237\035\334\274\341\265\253\275S\207\345\275\222;\001\276C[\221=\005\302\266\275`\276$\275m\214\034=\241r\204\275\311\307Q=\346\264\372\272\240K\311\275\200\276\332=\336\266\013\276 \014\211=\223\201\313=t\377\250\275VU\263\275\201i\022=\032\007\344= \227\007>\302\3075;\377B\007;\375\2440=\037\220\247=\251\361\207\275\3060\362\275@^\271\274\203/\034\275\223\321\340=\322\217=\275=\032==\200>\201=\346\340?=\t\254\010>\353w\016\276-\330\236\275\323\232\037\273\342U\375=t!\310\273O\332K\275\323\210\252\274\264^\315\275(f\316\275]k\276=u\351\276<\353\353\252=\247\003[=D6\373=\212\021\346\275\247?N\275\267\355\223<\271>8\275N\003\216=\004\264T=\200\035\247=\030s\330\275\244_\211\275\314\351\003>,\017a=\345\275\022<\264\020\337\275\275\376\007\276\223m\221\275\2356\320\274\034\265\212\275\247-\002\276)3\311;\200\245\253\275\016\372\343=\326\303\305<\024\340\234=\270\025F=\"\261o\275\356\222\215\275\257\241?\275\n_\315=\257\036\003\276\001\310\263\275\340\277\214\275Q- \275H+\307\273\241\262c\2757\306R\275\374\225\303\275\322\221l\274\014\277q;F\213`\275\351EB\275\250iR\275\2674\311\275t\033\277<\tK\237\275\373\240)=\315\225\313=\030:\344\275a\253^=o\316d=\275[\242\275\252-\241=epM=$\004\313\275\226(\217=\331\320\376\275\246\\\200\274\035M\306\274\267k\211=\324\305\025\275\024y\253\274\232\213\340<\272\203\200=\230s\214<\200\266\344\275\304x\315=`8\317<\177\212\354\275\211+\375\275\004d\t>N\322\3349\267\304\201\275\215F\364\275\016\270:\275\275\320\353=\016V\334=\247H\005\276ZM\342<\332{\323=\021\332\t>\275\205\007=\0003\344\275\222\227\340=\344\360\231\274\007u\374\275\227\0376\275\351(\017=\230w\364<w\221T=\02630=\324#\263\275\246p\006>\207\020\352\275Qw\264\275\364;O\275y\n\354=\372#\347\275\343Q\312=\357\007\246\275\323\236]\275sM\272=\237\315\357\275\014\244\357=\364\274\370\273\353\226\014\275\246\263W\275-\363\241\274\322\215\322< \265>=dO\243\273\302b\216\275\272}\354\275\351Rv\275\247\367\242\275Y\244\024=I\274\263<z\031\312\275C\243\212=\'.\024=\276\260\002=\256!\306\275\224J\341=!Z\333\275\227\263\200=\326\364\316=\213\243\214=m\026\370=\031\210\001>\264\023\004\276>\256\304\275\035\334\217\2751\263\315<\305\262\336=A\247\332\274\315W\204\275\371^\016\275nY\030\275\006[\237\275\345\267b\275\2721\005=\016`\245\275,w\027=\370\254\354<\251X\342\275\005\222p=\211U\376=\222\377\304=\226j{\275\361\341\246\275\2613\030\275\334I\220=QD\372=\245u\231\275\353\010\345;\023\224Y=B\343\303\273\023\315_\275\221\001\213\275d6\231=\366I\223\275\"\241\314<d\255<\275\237\312\373=@\340\\\275\300\341\247<\217&\360=\031fV<O\277\362\275\352\240\377=\351wC\275\324J\005>\245\364\t=J\306:=\360D\274=\236Zb\274\247c =\334\206\217\275S\336\300=(\317\031;S\375\346\275\213F\344<\323\022\003>\215\003\277;M\305^=\030\252\222\275;\013\242\273p\325\307<\036.\211<\277I\004\276b\320\362\275]\275\255=/q\265=\316V\372\275K\224\240<\342zN\275?\324\241= o\263\275\014\343\004\276#d\360<[:\351=\037$\204\275F\244\033;\362\213\373\275\210\371J=?\322b<\363d&\275X\243H\275\270\353\205\275w\316]\275\356\216\242=\327\037\343\275\217\350\022\274\336\220\322\275\nv\203\275\204\021\224\273\267\327\332<\307\026\036\275\230T\243=\3057\323;\027C\232<k\022L=\3024?\275\223g\210=s\220\234=\235\204v=<I\367=c\330\000\276z|\203=p\032\224;\226\020\r>Yj\014> _\027\275\034U\\<\343\364\202\275*\220\\=\344\334%<f\024~\275\242\256\223\275\253t\257=\340@5\275\010\007[\275\244[\325<#u\312\275\260\'\256=?+\005>\325!<=\006@\373\275\232\\\032<#[\'\275\310=\360=\301\033\314=\234\262\377\275k\003\262\2752\022\333\274\250\236>=L\274\355\274\032\313\337\275\003\355\266<]\373\377\275ev~\275\365;4\2751\336\346\275\262\371\373\275;\227\214=\224\312\320<\025\023\014\275\254`\263\275\362\204\254\275H\222\n\276)j\3639Qc\235=\202\221\341\273-\3577\275\236)\343\274\351\355S\275\375w\216=\230\275\024=\n\'\t>\331\250\000\276\216\013\333\275\307-A=*\332\200=\r\322\270\275\271\263\214\274X}\247\274\346\315|\275\336\271\367\275\230\215\252\275\331\224\315\275/\013\277\275S\352\347=\227\320\247=\355\207\233\272}\022\302\2757T\266\275y\272*\275Hm\002=p\327T=\247\356J\275\243\002\014>Ft\251=\277\275q<8T\263\275\257(\n\274\253\332\325=\314\340\264=r7\021>\345*\253\275|\220\373=\317\310l=v\346\345<&\3502<\026\354\361=\205\211\0368\253\371j\275[\001\205\275\210\215!\275\203\270\304\275\325d\251;\330\356\210=\312k\204=\251\364\227\275\310\342e=\317\370\223<\006\245;\275R\335_\274\225\274\200=\251\363\300\275\367\302\n\276_\305\220<@\2727\273`\000\024\275\201\311\007;\033!7\275~\2600\275I\346\351\274veR\274\273)\217\274\2046\032<\022\307q\2750\003y\275\376\240\240=\317S\374\275kFs\275\270f\271<\364w_\275\213r\356=\004Y.\275\226\\\367\2735\253\342\275p\251\210;\"\215\007\276\372\226\205=\322\t]\2753\023\374\275\264qK;\030\262R=\250\324\323=\203\273*<\375,\222\274\320\341\374\275\302{\331\275\337o\315=Y\331\221\275\312\220{\274,\335\230=;3\226\275\250\257\226=.{_\275\376\356\270\274\374\350\376=\031\200\257=N\245\n\274\214\225\367\275\217\315\264\275\0357G\275\211\241+<\372\003\004\276\251M\235<=\346\213=v\331\350\275\270k\t\276La\225=/@\246\275R\310>=Z\302\002==\307#\273\302%\241=LW\354=I\t\225\275J\370\331=\000#\225<\365`\004>\211J\216\272\205\222\336=\365d.=j\356\332=\252\r\331\275\242u\232\275\265\221\251=\231\013\337\275\342$\204\274\373\264\202=u:\001\276J\006\314=\354\310\357\275\275\321\223=s\343\300\274\301\364\350\275\203i\177\275\307\326\264=\331\273\357\274\217\354\004\276\302\331\312\275\344\233\222=\323\346\014\275\257\367\341\275\2254\222=\035\355G=i\376\310<<`\266\275\000\217]\275\306j\206=4km<\305\3408=xb\313==\3536=\033\370\257=\034\360*\275\017{\003>}\036j\275\2774\343\275\325F\206\275\221\301\344=\034\032\363=\352\271\373=\014\"\206=%b\020\275\237\2709\275\334\337\025\275\376\246H\275\n7\007=\251\220V:\352\306\\=\272\355\374\274\360\367\341\275_\n\203=\024\024\253<\242\200\225\275\240\312\026\275\256\315\304=N\222\n>\347\255\010=\210\262\202\275N\352\036=\316\026\302\275\246\210\256\274\005=;\275by\221\274!-\263\2747\035\351<\225\247Y\274a\200\031<\257G\327=,\177\372=-\223\247=)\202\003\276\300\217\345<\207\210\001=\243\253\202\275Y\242\002\276\037\232\327\275\307\314\214=\201\034\273\275\365\363\257\275\302sl=\224u\316\275\032\377\014=Zi\000>J\017B=\257\302_;z5\206\2759\343\245;d }=\021\032q\275\215\362\210<\231\202\376=T\277\363\275|\216\305\275\336\0258<\312G\350\275;q\027=\357\3730\275\023\376\260=\036\307d\275Px\005\276A2\022=\323\275.=F\272\223=BU\302=;\357\330=\026\312==p\355\325=\246\317\031\274d\234\243=\020\nS<{\352\003\276W/\r\276+=\027\275\257\227\264=\031G\341<\352\036\204\275\020\2204\275\265\202;<\244[\241=\260\335s=\307\"\321\275\312\230\305=D\260\341\275\305\225\233=R\004T<\t\276:=p\347\242=\025\217\345=4\216\306=\362\317\363=UF`<\313.\353\275\027\224\316\275\342\306I\2754\314$\275\242\356\272<\264?\203\275O\251\362=a\314Y=\034\\k\274\003a\202\275/\024\240<\212\2672=\224\021\005\276\214\217\350<\271\262n\274\230[\274=ksY\275$\227\206\275\362\317\004\276\372\205\341<\237\250\326=\274SP<&{\206\274}\202\217=Q\267\024\275\323\272\334=\002(\253=]1P<\354\276M=\006\331\362=]\212\370\275\211\275\021\275\r8\317<@\302\234<p\013x\274\371v\321\275&\241\365\274\251\310\362=\245:;=\215u\014=\030\010\212=\301\n\251<\004\"\221=b\246\325\275\000E\210\275\257l\227=\236V\213\275~\346\350\275\344\230\336\275\272\014X\275\033Y\344<\\R\243=5\200\275\275\261\\\334=\377\376\332=\254\354\373=\236#\254=Y\202\343=:8\240\2757}\360\275\313\240\213\274\312a\304\274\347\016\335=\032\"\266=S\333\337\275A\002\242\275\322p\261\275\332|\235\275\367~z\275y\332\255\273 [\304=\2412\374=\003\351\317=Q\271\272\275$\345\320=\300\355\270\273F\270\201\274K\322\023=\217q\256=1#\006\275b8\031=\231\272\362\275\214\177v\275J\226\371<\202\216\330\275GX5\274\036x5\275z\031\243\273\026p\001\275F\347\033=\216n\201\274\226\013\376=L6\222\275 \n\356\275\350!\264<\261\207z<i\311\350=U\020\377\274\2335\363=\217\224V\274\212\332\301=\024\310\353\2750*/\272VLY\275D\236\320\275d\'\224=\031w\001\276\213\\\217=u=a\274-\271\003\275yn\366=vV\265\274\275\202\225=\'\230\004\276<s}\275\317\035\333<\202\215\303\275\252!\001>\020\237\264\275\255\332\213\275\350\302\005>\244yZ\274\275\227\001\276;\r\256=\036n\005\276T\317\320\275\260\302\211\275\351\222\225\275\201\023A\275J\033\311\275\010\3750=\231\236\261\275\t\221\220=\021\306\006=gP\207=\005<\262\275bQ\347=l\203\264\275\257\r\025=&W\002\275^\234\341=\273\220\245=8\320\274\275N\261\310=\231\231\004\276\"\235\356<\277\231\007\275\024\014\245=?\031\010>\247\030\230\273\'\365\227\275z\'\275\275\272\215\242\273e\256\206\275\261\033\347=\332\020\t\276H*\017=XG\333=\277n~=87\265\275\244\021\325\274\317a\001\276\356\301.\275\035\356\"\275\214R\316<\212\373\366=0\204\353\27588C=Z\301\367=W_\276\275\212\222\361<\340v\004=-\257\317\275\016y\005\274#\305\370\275(\221I\275\323<\321\273\363\370\241\275{\020\242=\250\321\366=\226t\373\275\2109\270\275\340T\013\276\336\236\352<\362\345W\275\265\261\217\275|\200\213\275\215`n\274\257\022\253<\326\027\002>[\311\026=\354f\371=\002.\014\276\315m\212=\0149\206;\220\032g;\342\360\372\275\234\320\353\275\364\2078\274\366\302\332;U\3718\275\315\334\257=\206\025\202=\351:\271=w\244\316\275\341\033L\274\030E\357\275:\217/=D\315_=\270\017\272\275M\217\234=\003\036\257\275>\001\003\276\013\323}\274\255\207\303=\"\022\216=\022\346\311=1@\355\275Ss\262;\031\036\366\275\367q\214\275%\373\264=\344\207Z\275\2121\314=\201R\262=Pz\302\271eh5=\006\0347\275\013\3451<\223\013\320=\000\307\301;w>\010>x\365\"\275\250`\321\275(\261+=Y\237\004=\240\017-=_\005\227=c\234\271\275b\332\016\275\333\253\325=\304n\252=\354\021\024=\274\016\376=\343E\001\276\\\240\356=ad\201\274\301\240\345\275\014\347\'=\225-\374<\017\206\230\275T\256\204=\3641@= w\354\275\271q\271=c\256\204\275^\004\262\274\221\255\377=\245\225\036=\245\225\005\276:\023\220=Zj\336\275\024\341\313\274\217\034\221\275\2179m\275L\003a=_\247b\275\326))\2750x\222=\017\341\347\273\351:S=I\207\247=zUe\275\200\021\267=\245\r\331\275E3\262\273\\f\254\275?U\001\276\337\316\032=\246\326\336=!\210\221\275\272\347\246=\325\354\232=fc\221\275\010`\232=\t\033\330=o\200U=\332\260\266\275W\221F<\014$\303=\336y\377=\341\305\000\276\304\2573\275wY\263=\033\270\t\276$\315>=\231\241\256<\022\334\003\276\253\253\003\276\021\332{\275\260\256\014=FT!\275\230-\010>\247\361\313\275\352\034\254<1G\216\275S\264\000>\305\336\273=T\304\373\274\267]\266=\301q\221\275\352\207H=\032\373\301\2750A\300\2759,\001\275Z\006p\275\351?\327\275\314\301)=\0257\003<\214A\331\273\206\317\001\276J\224?\275\312\316\363\2754=\334=\272EA=-c\322\275\260\326\235\275\231\302\351\275bnP=a\325\230\275\363M\236=$\355\245\274\017X\316=|\237\240\275\204p\000=\323\020O\2752\022m<\315]\320\273\rN\007>8QH=F\365\225\275\314\351\361\275\303F\\=7\277\357=D\005G\275I\021\343\273\356\343g\275b\206\374\275\361kt\275\236\244\212<\027L\202<\354\375\024\275\233\320\263\275\204\251V=\301\260u\275\373\334\031\275\r\362\326=\025D>=1)\246=r\220\223\275\014\204\014\276n5b\275\004\020\200=\230\303\002>J<\327\275\224\360n=\006\332\312=\300\334\341=8\316\230\275\014\316\033\274F/\210=\3043\021\275\206u:=Ab\373\275p%\315=\021\377\271\275#\000\255=Z\030\203=\226q\026>\336o\344\275\0378\343\275\271\207\r\275\360f\312\275/\312\033\275\212\312r9\251\331\220\274R\311\363\275\305\321\373\2753X\352\275\023\027h=\351\203\217\275M\016\240:\211*\225<\2020\357\275\333\310B\275\217\340\210\275\307\253\200\274\373\342\306\275\377S\236\275\355\257\024=\223\366\331=(\331\264=/\017\213=\266;\033\275\000E\035\273\331\225@;*\323\213=\211Ql=\204p\375=\376#\262\275\265\037\025\276\262}\222=f\340\271=,<\237\275\340\r\252\274:\017\027\276\267\273\335=u\221\355=2\212U=\032<\347=\241\254\213\275X\316\010>\253t(=m\220\304=\260u\365=\222\267\023=\020_\n=`)\034\275\002+\270=X\020\352<k\221\014=\343\312\312=)K\235=\254\005d=2\272\003\276\373\354x<]I\032\276O\221\375=RU\025\274U>\016\2766(\372\274\306\234\231\275\315\363\206=\324\313\027>\316\307\273\275\343\223\243\275\301\215O\275\367\311-=\024\337X=\320\367\004=\270\226+\274\240n\247=\203\245];D%\266=6\030\234\275\203t\245=\312`\276=\0343\312=\376\274\267\275\270\320\274\274\311\353\352\274\213&\375\275i\207\333\275\326V\250\275\242t\017=\260\177E=\346w\024>\200\021\036=\\/\t>\363T\251<\374\325\342\275q\220p=\326L\247\275a\300\023>\321U\270;\222s\032> \023\267=M\202\347\275\213\355\212=\017q\333\2746\331Q=\234\213\007\276@\355\352=^p[\274\007\271\016>c\t2\275\232\365\332\274Q\262\031\275\004\377\226\275\237\205.=\263\364\014=V1\200\275n\334\214\275\021&\021=\\\350\027>\242\r\036=$r0\275\31369\274\\\254\305=\225\374\370\275%o\373=\002\021\264\275V\273\303=\371\004\324=P\214\275=\007\372Z\274\374%\376\275\020\323\276<-\372\335<\304;\000=r\254\215\275\345N\277\275\014e\226\274\263\026~=M\223\315\273?\325\366\275,}\226\273\327\266a\275\210\264\003\276p\226\222\275s\321\373;\344\026\235=\021?\023\275:\020\365\273\236\363\360\275\202\307\351=\321\214\225\275\177n\311<.\260#\275\'\361J\275\216\203\017>\313\357V=-\247\352\275]\370\321\275hP\014\274\236\242\340\275\376s\355\275@nV<\255e%<tc\220\274z/\270<\273\371\276\273\230*\312\275B%\374\275rN\204\275\032\301\305=?\324\211\275\202\322\315\275t\377\374=\356\253\312=\022e\301<\262a\225=\203\363z<\rt\356<\276\251\312<[\316\274\275\0351\252\275Cw\202=\220D\266=j/u=\365\032\371\275\202\341\371<\235`S=h\357\013\276\315\032\243=5\220{\274\326s\246\275\331z/\275\265\374\355\275&\347\313<\032\332Q\275\260\023>:F\364\254=\346\310\365\275i\342!\275_F\200=\314\333\357=\370\221\336\275y\235\362=\237\034\244<\225\243\310\275\214Q\013>\366\226\221=3\243\321\273\367nN\2755\342\273\274\366x\035\275\351\222\253\275\342\253\303=\304\234)=X\203\342\275J\275\356<\263\315\364\275vX\216\275\017\322\321\275#\026\031\276\306\374\377=\373k\327=m\361\003>\334\251\310\275\036\317\372\273?\363\337=\271\212\226\274\246@\367\275\306\317\336\275\376\334L=\231\222\211\275%)\027=/\033\343\275\201\215\200\275\366)^=:~d=\327{}\274\306/\277\275\316+\305=k\014,=\037\354l;\225\033\265<Q\010\020\276\323\213L\275\310\001\374<\367\t\244\2749\340\027>\206\203\254\275%\234\277;\235\265z\274\req=1,\334\2756gJ\275z\370\313=H\t0=n%\331=\024\222\010>\210t\246\275\336\022\312=\364\327\336=g{\366=\241\322v=\345\223\010>@\005Y=LH\010<F\334\004\276>\373/\275\245/a\275^\257?\275u\347\245=\235e\003>L\334\n\276\321J\005\276\312\373\007>\013\021\024\276)\315\353=L\313y=\275\262\237\274^\325\002\275\224\351\202\275\000\032\236=D\014\343\275\200\353\265<)j\374=\235\313\354<I\340\343\2753\003x\274\245\223\324=K\232\313=\222T\270<%\212s;\243\0200=VOd< \310e=Y;\372\274\350\231\311;\010\r\261=H\325\340\275\236\260\001>\022\355\222=]~B\275\260\021\365\275\371g\305=\227\260\377=\245\r\261=\252\240\265\275\354s\262\275C=\002\276\377\360\236=<\271\335\275%\371\302\275\373x\007>\264{\224\274l\337I\274\327A\373=13\201\274VPP<\300\206\244\275\363\306\306\275\243uF\275\365\021\342\275n\340\323\275N\036\305\273\252\270\313=\205\271`\275P-\322=\235q\004\275Rf\202\275\177\021\014\276\306\354\335=\215\211\r=\234pD\275\314V\311\275\352 \307\275cTO=\3675\313\274\321y\351=7a\'<\3448\317=\316M\226<\305\021\227\275Z\215\375\274\001\226\344\274\307\022A\274`\365\004=\367\"\375\275\'\321\314=\037=\375\275\304\002G=\027|X\275\352\302\230=\275\016\200=J\370\320\275\302\\\351\275\314\000\336=\267\014\205\275\020\\\000>\240W\353=\261\201L\275_\022\236=\334`\r\275/iD=\375\362\222\274I\"\367\273\\\025\313=t\035\261=*\306\n>4\356Y=\207r\203\275>\025\341<\333\237\240\275_2\301\274\341\261\005>#o[\274\225\345\320\275\373H\001>\010\236\321\274X;[\274\276\020\303=\013E\214\275v\002\217\274\314\204;<\353(\215\273y\'\016\276G#3=\354\024\203\2754\205\333\275ry\n>\250gh\275\301\2304=S\2410\275S\210\257\275oYe=u\021\325=\353]t\275 \210\006>@\254\201=x*\230\273\356\233\247\275(\300\311=\246\365\244<\213S\'=+1_\275\264\202\024=t\034i\271\30348\274\373\003W=\345\030\346=\037P\340\275\355}Y=\237\273\004>\025A\361;\256\304\210=\212\200\'\274\371\2554<\315\016Y;\231\323\311=\025#\005\276\373\352<\275\032\002\263=\"\267\374=\321P\221\275\233\222\266=w\362\267=P(\356=n\216\032=\206\321^<>\272\026<\221\375\246\275P\240\226\275U\'\270\275\2272\226<\353*\313\275\231+\261=\0037\276=6\262\216=\3500\202=\201\360z=\0310&\275\341\272\325\275V\354\337=\357\020\002<\365\315\227=\330\241\021\275\276;\276\275\020\271g\275\210>V\275-\217\237=\0206\357=\271\002\177=m\022\335;\203\202\374=\250\206\250\275\327\365\256\274\022\371C\275U\374i=#]\246=C\003\221\275\034\032\216=B;\357\275\236>\305\275^\371I\275f\254\005\276\221\341\236<\324R\251=k\266\217\274-\262\276=vPl\274\366%\377<\2362\311\275\0106\277<\022\367\007>\025;\231=\305T\006>\t0\016\276\025\2012\274\322\034\315\275\212\000\t>\001\366\000\275,\024Z=h9\254\275\177f\354=P\255\260=\001<\342=\306\376\363=\316\235\003\276\332\320u\272\373\324\366=\206\212\304=0\306j=2(a\275\247\036\013\276\013\252*;\366`\342\274\313\336\313\275w\203\314\275n\217\024=\250\253t=\347\322\375\274\227K\360\274\255\003;=\337\375\017\276Jv\351\275\343\234\344=Ko\305;\232\304-\275L\323%=\254\035|=_\264\223;\262\363C<\2440\007\276\202\003\213=\331\266\366=\240<\273=\277C\236\275J_H<\264m\253\2758\251\266<{E\312\275\353\313\370\275[\251l=\233Po\275\212\263\354\275\271\347\225\275\356y\324=\220\004\004\276\265\347\202=a6\255=X\314c\275b\371d=\1776\000\276\252U\254;U6\352=\276\010c\275\t\2620\275!R\223\275\010F\010=\250_U;\321\330\336=\375\372b<\216\257\032\275\223N\234\275\364\234\200\275\030E3<5\331\013\275nE>=!\354\337= \304\367\275\034\202T=[\336\021\276\010\243\353<:A~\275\304\325\027=\3369\007=\'i\261={\263\344\275\276\004\263<\204\202\377=+\265\222=G\355d=hJ\001\276\230oZ\275\303P0=\327\330\327=\372\302\266=\247u\222\274\261\251I\275EE\003\276\374j\340;oI\267\275\031\334\022\276-(\250=\367\335\315=\364\033\375=\332j\010\276Y\226G<E\213\315=\232\335\210\275\371\316Z=P\232}<&\272\201=G\233\366\275\336\252\311=]\006\326\275\0043@=\330\264U\275bs\276=\227N\027=\232\264M\274,\241\356\274\nw\004>$!\332\275\031\232o\275C\324@;\277\365C=PW^=f\273\333\275\354\316\334=o\r\271=\324\275\277<\227Z\235<r\201,\274G~\253\275#\333\202=\206b\016\275\233\2039\275N\331\001>T\250\242\275\353\366\272=\362!\r>\"6^\275\230\"\334=\254\225\264\275}\230c\274`\360\325<\304\031\345\275\327u?\275\270\346\322=%\207\227=\263\332-\275\211\371\245=\376$\240;/B\277\275\346y\337<\243?\306\275\376l\226=!\272\210\274\372<\227=t\372\035=\002\227\262\275\314\025\367=>\250\213\275\257\212\006\275\200\235\302\275\021\272\321\275\372\024\234=\367\374\226=\213\023<<\210\037e=\032^\211\273\013\224T=\026\273\300\275\250\003\005>\273H\205<\265F\375\275\\M\367=6\270\361\275\263\333\322=!\250\267\275\357N\254<}#\035\274\366-\246\274\036>\255\275\005\276\261=\232nE\275\362\322\244\273\352\310\272=YK:\275;\261\335=\320a\221=\367\245\233:\305n\315=v%\276\275\301\263\020=#\025\372\2752x\017=\023l\002\275\364f\300\275X\263j\275\372\214\257=\224\025\366=\334\230\033\275\371\220\304=%\'\313=\276A|=\004*k<\262\353\261\275\243\222\250\275D\340U\274w\301\360\275u>\214\274\316\223F=\007\034\374=\331\350\017>\200\356\350=*\224\205=\233\356\247\275\2401\345\2751d\303=~\311\271<\363\236\331\275\270\211\005\274\\\317\376\275\217\360\275=\267\000\023\275\365q\222\275\357\257\375=\257V\n>\356\311\327\275v\t\272\275@B\001\275\355\304\224\275\"|/=U\235\253\275\327\275I<S\351\372\275\217H>\275\322\214\231=A5\356;\237Q\376\275\017\371\211<\306h\271\275Oi\027\274\272\261\004=\030r\207<\371L\013>F1\357\275Y\021\330\275\211\025\005>\235r\365\274lF\014=yq\211\273\236.\332\2748>\000\276x\353\354=\013\233\000>H\272\260=Y\215\265\275v\327:\274$\007\234=\032\220\221\275\235\240h:\324\356\264=\036a\371<\"Q\240=\374\t\234\275dH\377\275\352\035\036\275?Q\251\275,P\372=K9\"\2754\203\210\275F\247\235\275\232\006\276\274\350G\273=\324qm\275\021|\030=@5\376=UU\353\274\253$\345\275&\257\323\275\314\225\272\271\335UN\275\035M\255<:h\363=\370\221\317\275\3028\365=\357\032\370=\370\346\301\274\304\002\362=}\373g;=\005\355\275y\343\322\275\373\217?=\251\312\260=pD\023>\224\200\204<\206[c=h\000\240\275+\001+=\262\360 =\330\345N=,\250\357\275]\275r\275\023\347\261=\'N\270=\364A\370=T\355B\275<\323\366\275c\220\366\275\t\376\035\276\016f{=\36441\275M-!=_`\001\276\201\036\204=\221\014\366=P&\355\275\334d\376\2755v\276\275a\211\001>\263\376\213\275\316\304\354\275\371U\004>\232\217\336\275\207\261\325=\301m\245\274\n]\327\274\\\r\343\274\214n\\=G\034\320=f\177_\275\373\265\351\275:\261w=\206\233l=\361#\326\275O\000\201;Q^\024=\277\367\364\275\201.\316\275\022$)=\010\255&\275\356\010\267<&\347#\274B\334\243\275\356\306p<\261P\327\275\346\031=\275\226l\232\275G\321\214=\342\2461\274\237\204\256=\177W\274\275\224\351\377=\3419\343=\342\016\023>+Y\231=_T\343=d\346\316\275\311\'s=#\231\321\274\324cU\274Y-\375\274d\374\360=\2248\260=x\245\r=\347\206\346\275\005\rQ=\355\315\014>\234\270x=R%D\274\035\301\273=<\300\002>qv\377=\364C\013\2768c7\275\375\323\026>r\276\301\275\2642\232=\217\337\021>\307Y\347\275c\354\227\275=\223\365=\024S\t=\340b\352\275\273\031\021>\241\022\021;S\266\200\2732\036\350=\226\031\276<\261\336\357=\370A\331=\344\276\017>w\014\353\272Q\277\334\275\212\333\336=B5\354=\264Kg\2728\240\316=4)^=\234\";=\254H\306=\"\334\200<\356u\202=U\351v=\022\023\003>\275\260\003>Cg\330=(\224r=\300E\371=\034z\227<\376\246\232=\tB_=\2522`\275\031\315\275\2743\365\026>\"\306\025\275\352\t\232\274\326\271\331=\000\352\343=\302\342\246\275me\362=oW\214\275\342\306\247=\307\337\346\275\233\010\301= .%\275\355\311\213=\316\362\360\275w\277D\275=\302\263\275\246TS\275\013\013\246<\203\345;=\032$\013=wd4=\006\256A\275&\210\263=u\331[\273\240]\303\274\242\310\374\275\223\275\366\275\354\346\276\275\006RL=\234\342\224=\201w\024=\345\303\255=\372e\r\276>\351\247\275\021\274\223\273\016\357\233=9d\020<\270bn\274\204\324\\<\276\252\314\275\220\322\031<\254|$=2\021\r\276\007G\265\273\232\204\300\275\221\300I\275Q.\323=\322\t\364=:\'\373=L\256\021\274\247\037\211=\241\017\244\274\316D\270=\372\311t=F\306K\275\377\373\231=\272\365\345\275\014.\021>\000P\253<\311\310\302\2747\305\\\275\016Q\000<\335\246\216=6}\346=\352\013\352=7\374 =\330\270\005>\2664G\2740\274\006;\353B\262=p2\013\275\316\351\\=\306:\204\275p\320\373=\213w\330\275\231\220\030>M7\375=\016\204\353=\3345\t\276d\010\003\276l\207\315\275C8\260=:\246\352=\233\321\221=1S\253\275\013\020\363\275\234f5=\240k\337=\'\313\000\276O\027\272=Ev\340\275\343%\252\274l.\342:\2247\254\274\367\001\007=\262\207\331=\2404\235\275\002\242\203\275Hn$\275[R\002<\037\365\330;a{\251\275+\014c\275\240\246\023>a\033\276=\346\\\013>\013%\255<R\213\257=!\t$=p\t\213=F\327\034\276\317\255h=\326\253\027\276\304^\237=\247\372\213\273U\254\024\276\021\227\260=\362\3140=\201\272\216\275\3776*\275\301\263\351=\371\276\026>\322W\223=F|\031>\233\245N=T6\211\275}\205\263\275\322\315\250=\346=\360\275)f\243=\350\311\266<jdk=\357\267\004>\323\213\243\275a\203\317=\'\252\237=\274\315\352\274k\340,\275\245m\237<f\216\255=\305\336(\275\214\247\274=\240G\212=5P\367=\216\020\371=\235q\323<\325\211\003\276sc\200\275\317\371\217=\221{\260<I\003\365\275jS\363\275\340\265\363<\212\310\007\276j\016X=\336\ni\275B\204\004=\213\023\313=\303^\305=\000\032\267=\324DC\275+\252%\275\3247\020>b\014\250\275^y\221\273;\275\271=v+\377\275\216\316\323\275M*\260\274\255T\n\274<:\366\275|\342\271=\2331\275\274\013I\215=v\"\322\275\0370\r\276^-\371= \215\032=%\372\010=0\226\335\275\213\207^\274\255l\016\276\336F\363\274\371\275\t\276\212\313\374;$\334\262\275\371P\365\275\354j\333=\300\326\301=\342^\242\275X\347\365;t\345\215\274\377n\344<\316\344\364=\234\360\261\274\354\2271<\367\321\367==\321\333=\"6\257\275\022X\344\275\372\242\351\2754\325\025\275\236\250\n\276\334\033\317\2757\234\010>\301\360\341=1\333\346\274\326\300\355\274K\244\006\276\261j\340\275\343y\004\275\277\306\347\275\273X\001>\036G\001\276\016\350\003\275\363\236\307=\344J\246\275\031\034\253\275\200P\220=\365#\005\275:\006\222=%\246\375=Bk\256\275\363\376\236\275\030\360\340=\036 